{
  "version": "1.0",
  "truncation": null,
  "padding": null,
  "added_tokens": [
    {
      "id": 0,
      "content": "<UNK>",
      "single_word": false,
      "lstrip": false,
      "rstrip": false,
      "normalized": false,
      "special": true
    },
    {
      "id": 1,
      "content": "<SEP>",
      "single_word": false,
      "lstrip": false,
      "rstrip": false,
      "normalized": false,
      "special": true
    }
  ],
  "normalizer": null,
  "pre_tokenizer": null,
  "post_processor": null,
  "decoder": null,
  "model": {
    "type": "BPE",
    "dropout": null,
    "unk_token": "<UNK>",
    "continuing_subword_prefix": null,
    "end_of_word_suffix": null,
    "fuse_unk": false,
    "vocab": {
      "<UNK>": 0,
      "<SEP>": 1,
      "\b": 2,
      "\t": 3,
      "\n": 4,
      "\u000b": 5,
      "\f": 6,
      "!": 7,
      "\"": 8,
      "#": 9,
      "$": 10,
      "%": 11,
      "&": 12,
      "'": 13,
      "(": 14,
      ")": 15,
      "*": 16,
      "+": 17,
      ",": 18,
      "-": 19,
      ".": 20,
      "/": 21,
      "0": 22,
      "1": 23,
      "2": 24,
      "3": 25,
      "4": 26,
      "5": 27,
      "6": 28,
      "7": 29,
      "8": 30,
      "9": 31,
      ":": 32,
      ";": 33,
      "<": 34,
      "=": 35,
      ">": 36,
      "?": 37,
      "@": 38,
      "A": 39,
      "B": 40,
      "C": 41,
      "D": 42,
      "E": 43,
      "F": 44,
      "G": 45,
      "H": 46,
      "I": 47,
      "J": 48,
      "K": 49,
      "L": 50,
      "M": 51,
      "N": 52,
      "O": 53,
      "P": 54,
      "Q": 55,
      "R": 56,
      "S": 57,
      "T": 58,
      "U": 59,
      "V": 60,
      "W": 61,
      "X": 62,
      "Y": 63,
      "Z": 64,
      "[": 65,
      "\\": 66,
      "]": 67,
      "^": 68,
      "_": 69,
      "`": 70,
      "a": 71,
      "b": 72,
      "c": 73,
      "d": 74,
      "e": 75,
      "f": 76,
      "g": 77,
      "h": 78,
      "i": 79,
      "j": 80,
      "k": 81,
      "l": 82,
      "m": 83,
      "n": 84,
      "o": 85,
      "p": 86,
      "q": 87,
      "r": 88,
      "s": 89,
      "t": 90,
      "u": 91,
      "v": 92,
      "w": 93,
      "x": 94,
      "y": 95,
      "z": 96,
      "{": 97,
      "|": 98,
      "}": 99,
      "~": 100,
      "SE": 101,
      "SEP": 102,
      "<SEP": 103,
      "<SEP><SEP>": 104,
      "<SEP><SEP><SEP><SEP>": 105,
      "<SEP><SEP><SEP><SEP><SEP><SEP><SEP><SEP>": 106,
      "se": 107,
      ",<SEP>": 108,
      "re": 109,
      "\\x": 110,
      "in": 111,
      "on": 112,
      "te": 113,
      "or": 114,
      ")\n": 115,
      "de": 116,
      "=<SEP>": 117,
      "st": 118,
      "--": 119,
      "th": 120,
      "<SEP>=<SEP>": 121,
      "er": 122,
      "sel": 123,
      "\\x3": 124,
      "self": 125,
      "al": 126,
      "me": 127,
      "le": 128,
      "ti": 129,
      "<SEP><SEP><SEP><SEP><SEP><SEP><SEP><SEP><SEP><SEP><SEP><SEP><SEP><SEP><SEP><SEP>": 130,
      ":\n": 131,
      "t<SEP>": 132,
      "f<SEP>": 133,
      "an": 134,
      "s<SEP>": 135,
      "ar": 136,
      "self.": 137,
      "co": 138,
      "e<SEP>": 139,
      "<SEP><SEP><SEP><SEP><SEP><SEP><SEP><SEP><SEP><SEP><SEP><SEP>": 140,
      ",\n": 141,
      "en": 142,
      "ro": 143,
      "at": 144,
      ":<SEP>": 145,
      "t_": 146,
      "ur": 147,
      "as": 148,
      "----": 149,
      "ge": 150,
      "tion": 151,
      "\"\"": 152,
      "fi": 153,
      "d<SEP>": 154,
      "):\n": 155,
      "ce": 156,
      "mp": 157,
      "ame": 158,
      "li": 159,
      "s.": 160,
      "#<SEP>": 161,
      "ue": 162,
      "lo": 163,
      "ing": 164,
      "ch": 165,
      "ate": 166,
      "ser": 167,
      "to": 168,
      "ec": 169,
      "di": 170,
      "ri": 171,
      "for": 172,
      "si": 173,
      "t.": 174,
      "un": 175,
      "name": 176,
      "the<SEP>": 177,
      "if<SEP>": 178,
      "\\x2": 179,
      "t(": 180,
      "el": 181,
      "def<SEP>": 182,
      "ac": 183,
      "vi": 184,
      "con": 185,
      "##": 186,
      "id": 187,
      "urn": 188,
      "ap": 189,
      "00": 190,
      "ex": 191,
      "ret": 192,
      "no": 193,
      "in<SEP>": 194,
      "ter": 195,
      "\"\n": 196,
      "d_": 197,
      "mo": 198,
      "return": 199,
      "ty": 200,
      "res": 201,
      "tt": 202,
      "ul": 203,
      "',<SEP>": 204,
      "--------": 205,
      "<SEP>i": 206,
      "ma": 207,
      "ad": 208,
      "<SEP><SEP><SEP><SEP><SEP><SEP><SEP><SEP>self.": 209,
      "tr": 210,
      "com": 211,
      "<SEP><SEP><SEP><SEP><SEP><SEP>": 212,
      "(self": 213,
      "ab": 214,
      "ke": 215,
      "\t\t": 216,
      "m<SEP>": 217,
      "os": 218,
      "return<SEP>": 219,
      "the": 220,
      "pa": 221,
      "col": 222,
      "val": 223,
      "pe": 224,
      "ber": 225,
      "y<SEP>": 226,
      "s_": 227,
      "<SEP><SEP><SEP><SEP>def<SEP>": 228,
      "ut": 229,
      "('": 230,
      "mpor": 231,
      "rep": 232,
      "ra": 233,
      "ver": 234,
      "up": 235,
      "pro": 236,
      "op": 237,
      "vide": 238,
      "one": 239,
      "\",\n": 240,
      "==": 241,
      "ttp": 242,
      "\\x20": 243,
      "file": 244,
      "mport<SEP>": 245,
      "for<SEP>": 246,
      ")<SEP>": 247,
      "il": 248,
      "qu": 249,
      "a<SEP>": 250,
      "//": 251,
      "http": 252,
      "':<SEP>": 253,
      "ol": 254,
      "__": 255,
      "c.": 256,
      "()\n": 257,
      "]\n": 258,
      "://": 259,
      "fro": 260,
      "\\x6": 261,
      "))\n": 262,
      "test": 263,
      "to<SEP>": 264,
      "videos": 265,
      "cl": 266,
      "nt": 267,
      "str": 268,
      "do": 269,
      "['": 270,
      ".\n": 271,
      "<SEP><SEP><SEP><SEP><SEP><SEP><SEP><SEP>\"": 272,
      "ation": 273,
      "dat": 274,
      "s<SEP>=<SEP>": 275,
      "http://": 276,
      "asser": 277,
      "par": 278,
      "sh": 279,
      "com/": 280,
      "um": 281,
      "\\x31": 282,
      "\"\"\"\n": 283,
      "repor": 284,
      "t.c": 285,
      "bert": 286,
      "\":<SEP>": 287,
      "colbert": 288,
      "s(": 289,
      "####": 290,
      "s\n": 291,
      "None": 292,
      "ve": 293,
      "all": 294,
      "ub": 295,
      "report.c": 296,
      "<SEP><SEP><SEP><SEP><SEP><SEP><SEP><SEP>\"http://": 297,
      "thecolbert": 298,
      "c.com/": 299,
      "videos/": 300,
      "report.cc.com/": 301,
      "<SEP><SEP><SEP><SEP><SEP><SEP><SEP><SEP>\"http://thecolbert": 302,
      "report.cc.com/videos/": 303,
      "<SEP><SEP><SEP><SEP><SEP><SEP><SEP><SEP>\"http://thecolbertreport.cc.com/videos/": 304,
      "from<SEP>": 305,
      "bu": 306,
      "ob": 307,
      "der": 308,
      "\\\n": 309,
      "ing<SEP>": 310,
      "la": 311,
      "sion": 312,
      "Tr": 313,
      "is<SEP>": 314,
      "sp": 315,
      "']": 316,
      "of<SEP>": 317,
      "ck": 318,
      "arg": 319,
      "ta": 320,
      "data": 321,
      "(\"": 322,
      "not<SEP>": 323,
      "')\n": 324,
      "wi": 325,
      "key": 326,
      "able": 327,
      "per": 328,
      "<SEP><SEP><SEP><SEP><SEP><SEP><SEP><SEP><SEP><SEP><SEP><SEP><SEP><SEP><SEP><SEP><SEP><SEP><SEP><SEP>": 329,
      "<SEP>in<SEP>": 330,
      "time": 331,
      "ne": 332,
      "date": 333,
      "path": 334,
      "ine": 335,
      "type": 336,
      "value": 337,
      "True": 338,
      "se<SEP>": 339,
      "fa": 340,
      "get_": 341,
      "po": 342,
      "',<SEP>'": 343,
      "mi": 344,
      "d(": 345,
      "),\n": 346,
      "==<SEP>": 347,
      "Re": 348,
      "and<SEP>": 349,
      "**": 350,
      "ror": 351,
      "import<SEP>": 352,
      "jec": 353,
      "'\n": 354,
      "tex": 355,
      "rec": 356,
      "p.": 357,
      "y_": 358,
      "sa": 359,
      "sc": 360,
      "s,<SEP>": 361,
      "\\x33": 362,
      "+<SEP>": 363,
      "(self,<SEP>": 364,
      "user": 365,
      "so": 366,
      "----------------": 367,
      "\",<SEP>": 368,
      "\\x39": 369,
      "mat": 370,
      "\\x35": 371,
      "<SEP><SEP><SEP><SEP><SEP><SEP><SEP><SEP>#<SEP>": 372,
      "\\x34": 373,
      "\\x32": 374,
      "du": 375,
      "(self):\n": 376,
      "uest": 377,
      "with": 378,
      "<SEP><SEP><SEP><SEP><SEP><SEP><SEP><SEP>if<SEP>": 379,
      "bo": 380,
      "list": 381,
      "clas": 382,
      "<SEP><SEP><SEP>": 383,
      "\"<SEP>": 384,
      "\\x30": 385,
      "',\n": 386,
      "he": 387,
      "ff": 388,
      "),<SEP>": 389,
      "\\x36": 390,
      "\")\n": 391,
      "fo": 392,
      "\\x38": 393,
      "del": 394,
      "\\x7": 395,
      "ic": 396,
      "app": 397,
      "\\x2e": 398,
      "<SEP><SEP><SEP><SEP><SEP><SEP><SEP><SEP><SEP><SEP><SEP><SEP><SEP><SEP><SEP><SEP><SEP><SEP><SEP><SEP><SEP><SEP><SEP><SEP><SEP><SEP><SEP><SEP><SEP><SEP><SEP><SEP>": 399,
      "and": 400,
      "---": 401,
      "<SEP><SEP><SEP><SEP><SEP><SEP><SEP><SEP>return<SEP>": 402,
      "\\x37": 403,
      "ack": 404,
      "(self.": 405,
      "test_": 406,
      "pr": 407,
      "ou": 408,
      "<SEP>=<SEP>self.": 409,
      "py": 410,
      "or<SEP>": 411,
      "len": 412,
      "<SEP>is<SEP>": 413,
      "ase": 414,
      "ze": 415,
      "log": 416,
      ").": 417,
      "men": 418,
      "re<SEP>": 419,
      "[0": 420,
      "ord": 421,
      "In": 422,
      "ult": 423,
      "====": 424,
      "int": 425,
      "alse": 426,
      "am": 427,
      "IN": 428,
      "out": 429,
      "ction": 430,
      "_name": 431,
      "ren": 432,
      "as<SEP>": 433,
      "'<SEP>": 434,
      "qual": 435,
      "it": 436,
      "tem": 437,
      "ig": 438,
      "False": 439,
      "np.": 440,
      "cep": 441,
      "='": 442,
      "fig": 443,
      "-1": 444,
      "tor": 445,
      "req": 446,
      "TE": 447,
      "Th": 448,
      "ment": 449,
      "eld": 450,
      "ces": 451,
      "ang": 452,
      "ip": 453,
      "_in": 454,
      "<SEP><SEP><SEP><SEP><SEP><SEP>\"": 455,
      "line": 456,
      "01": 457,
      "is": 458,
      "get": 459,
      "ho": 460,
      "code": 461,
      "0.": 462,
      "<SEP>the<SEP>": 463,
      "_id": 464,
      "_c": 465,
      "assert": 466,
      "objec": 467,
      "model": 468,
      "\":<SEP>\"": 469,
      "0x": 470,
      "<SEP><SEP><SEP><SEP>if<SEP>": 471,
      "rror": 472,
      "text": 473,
      "url": 474,
      "prin": 475,
      "lic": 476,
      "set": 477,
      "au": 478,
      "ran": 479,
      "########": 480,
      "comp": 481,
      "<SEP>import<SEP>": 482,
      "1,<SEP>": 483,
      "<SEP>(": 484,
      "Error": 485,
      "><SEP>": 486,
      "has": 487,
      "pu": 488,
      "ini": 489,
      "d.": 490,
      "s=": 491,
      "ven": 492,
      "0,<SEP>": 493,
      "':<SEP>'": 494,
      "reate": 495,
      "])\n": 496,
      "at<SEP>": 497,
      "{\n": 498,
      "class<SEP>": 499,
      "ist": 500,
      "\"\"\"": 501,
      "-<SEP>": 502,
      "request": 503,
      "ON": 504,
      "_p": 505,
      "be": 506,
      "<SEP><SEP><SEP><SEP><SEP><SEP><SEP><SEP><SEP><SEP><SEP><SEP><SEP><SEP><SEP><SEP><SEP><SEP><SEP><SEP><SEP><SEP><SEP><SEP>": 507,
      "fe": 508,
      "],<SEP>": 509,
      "che": 510,
      "qual(": 511,
      "get(": 512,
      "ance": 513,
      "ten": 514,
      "else": 515,
      "}\n": 516,
      "%s": 517,
      "db": 518,
      "sub": 519,
      "ag": 520,
      "eck": 521,
      "al<SEP>": 522,
      "an<SEP>": 523,
      "num": 524,
      "s:\n": 525,
      "dex": 526,
      "LE": 527,
      "s)\n": 528,
      "\\x20\\x20": 529,
      "star": 530,
      "<SEP>of<SEP>": 531,
      "<SEP><SEP><SEP><SEP><SEP><SEP><SEP><SEP>\"\"\"\n": 532,
      "atu": 533,
      "ct": 534,
      "else:\n": 535,
      "rip": 536,
      "config": 537,
      "<SEP><SEP><SEP><SEP><SEP><SEP><SEP><SEP><SEP><SEP><SEP><SEP>self.": 538,
      "ht": 539,
      "IT": 540,
      "field": 541,
      "cur": 542,
      "with<SEP>": 543,
      "<SEP><SEP><SEP><SEP>#<SEP>": 544,
      "be<SEP>": 545,
      "Te": 546,
      "sy": 547,
      "(\n": 548,
      "m_": 549,
      "coun": 550,
      "defa": 551,
      "loc": 552,
      "Se": 553,
      "new": 554,
      "RE": 555,
      "<SEP><SEP><SEP><SEP><SEP><SEP><SEP><SEP><SEP><SEP><SEP><SEP>'": 556,
      "<SEP>=<SEP>'": 557,
      "0\n": 558,
      "<SEP>==<SEP>": 559,
      "lien": 560,
      ".<SEP>": 561,
      "AT": 562,
      "s[": 563,
      "OR": 564,
      "<SEP><SEP><SEP><SEP><SEP><SEP><SEP><SEP>self.assert": 565,
      ",<SEP>'": 566,
      "version": 567,
      "put": 568,
      "roup": 569,
      "wa": 570,
      "dir": 571,
      "Co": 572,
      "ile": 573,
      "excep": 574,
      "low": 575,
      "inst": 576,
      "ali": 577,
      "ther": 578,
      "Con": 579,
      "fun": 580,
      "resp": 581,
      "item": 582,
      "l<SEP>": 583,
      "x.": 584,
      "pre": 585,
      "appen": 586,
      "onse": 587,
      "<SEP><SEP><SEP><SEP><SEP><SEP><SEP><SEP>'": 588,
      "add": 589,
      "},\n": 590,
      "tri": 591,
      "wor": 592,
      "ssa": 593,
      "<SEP><SEP><SEP><SEP><SEP><SEP><SEP><SEP>asser": 594,
      "\\n": 595,
      "format": 596,
      "ST": 597,
      "self._": 598,
      "tho": 599,
      "ed": 600,
      "],\n": 601,
      "exp": 602,
      "<SEP><SEP><SEP><SEP>def<SEP>test_": 603,
      "{'": 604,
      "urce": 605,
      "<SEP><SEP><SEP><SEP><SEP><SEP><SEP><SEP><SEP><SEP><SEP><SEP>if<SEP>": 606,
      "ve<SEP>": 607,
      "AL": 608,
      "result": 609,
      "late": 610,
      "this<SEP>": 611,
      "0000": 612,
      "s-": 613,
      "check": 614,
      "\\x20\\x31": 615,
      "wh": 616,
      "sor": 617,
      "rai": 618,
      "ew": 619,
      "<SEP><SEP><SEP><SEP><SEP>": 620,
      "1.": 621,
      "min": 622,
      "st<SEP>": 623,
      "er.": 624,
      "gi": 625,
      "try": 626,
      "sig": 627,
      "pas": 628,
      "<SEP>+<SEP>": 629,
      "ce<SEP>": 630,
      "sho": 631,
      "tran": 632,
      "lock": 633,
      "action": 634,
      "st_": 635,
      "ure": 636,
      "%<SEP>": 637,
      "mple": 638,
      "kw": 639,
      "ted": 640,
      "group": 641,
      "AR": 642,
      ",<SEP>\"": 643,
      "0x00": 644,
      "set_": 645,
      "wri": 646,
      "ssion": 647,
      "[0]": 648,
      "<SEP>to<SEP>": 649,
      "os.": 650,
      "son": 651,
      "age": 652,
      "<SEP><SEP><SEP><SEP>return<SEP>": 653,
      "ader": 654,
      "ssage": 655,
      "ER": 656,
      "ener": 657,
      "back": 658,
      "create": 659,
      "AN": 660,
      "2.": 661,
      "update": 662,
      "that<SEP>": 663,
      "len(": 664,
      "object": 665,
      "arra": 666,
      "ute": 667,
      "var": 668,
      "end": 669,
      "=\"": 670,
      "No": 671,
      "we": 672,
      "temp": 673,
      "..": 674,
      "dule": 675,
      "+=<SEP>": 676,
      "use": 677,
      "ID": 678,
      "The<SEP>": 679,
      "metho": 680,
      "y(": 681,
      "response": 682,
      "max": 683,
      "\t\t\t": 684,
      "Ex": 685,
      "size": 686,
      "scrip": 687,
      "error": 688,
      "#\n": 689,
      "[\n": 690,
      "ca": 691,
      "========": 692,
      "man": 693,
      "<SEP><SEP><SEP><SEP>@": 694,
      "ms": 695,
      "#<SEP><SEP>": 696,
      "on<SEP>": 697,
      "<SEP><SEP><SEP><SEP><SEP><SEP><SEP><SEP><SEP><SEP><SEP><SEP><SEP><SEP><SEP><SEP><SEP><SEP><SEP><SEP><SEP><SEP><SEP><SEP><SEP><SEP><SEP><SEP>": 698,
      "o.": 699,
      "-0": 700,
      "m.": 701,
      "conn": 702,
      "2,<SEP>": 703,
      "read": 704,
      "ll": 705,
      "sto": 706,
      "_b": 707,
      "wn": 708,
      "clien": 709,
      "statu": 710,
      "Pro": 711,
      "pl": 712,
      "--------------------------------": 713,
      "s.\n": 714,
      "string": 715,
      "chan": 716,
      "De": 717,
      "is_": 718,
      "mage": 719,
      "kwarg": 720,
      "to_": 721,
      "ok": 722,
      "al_": 723,
      "<SEP><SEP><SEP><SEP>'": 724,
      "su": 725,
      "d\n": 726,
      "word": 727,
      "\",<SEP>\"": 728,
      "has_": 729,
      "fix": 730,
      "mar": 731,
      "None\n": 732,
      "ator": 733,
      "[\"": 734,
      "append(": 735,
      "pi": 736,
      "=True": 737,
      "St": 738,
      "eli": 739,
      "Ch": 740,
      "bute": 741,
      "param": 742,
      "Equal(": 743,
      "row": 744,
      "<SEP>for<SEP>": 745,
      "da": 746,
      "ed<SEP>": 747,
      "t,<SEP>": 748,
      "index": 749,
      "lay": 750,
      "sign": 751,
      "spec": 752,
      "of": 753,
      "*<SEP>": 754,
      "option": 755,
      "table": 756,
      "]<SEP>=<SEP>": 757,
      "write": 758,
      "<SEP><SEP><SEP><SEP>\"\"\"\n": 759,
      "S<SEP>": 760,
      "s):\n": 761,
      "jo": 762,
      "Lic": 763,
      "Licen": 764,
      "201": 765,
      "til": 766,
      "10": 767,
      "t<SEP>=<SEP>": 768,
      "elif<SEP>": 769,
      "Test": 770,
      "instance": 771,
      "call": 772,
      "message": 773,
      "<SEP><SEP><SEP><SEP><SEP><SEP><SEP><SEP><SEP><SEP><SEP><SEP>return<SEP>": 774,
      "****": 775,
      "produ": 776,
      "dic": 777,
      "1\n": 778,
      "ml": 779,
      "<SEP>and<SEP>": 780,
      "even": 781,
      "f.": 782,
      "Name": 783,
      "fil": 784,
      "Mo": 785,
      "state": 786,
      "den": 787,
      "Val": 788,
      "ask": 789,
      "por": 790,
      "vice": 791,
      "ype": 792,
      "Fi": 793,
      "run": 794,
      "EN": 795,
      "und": 796,
      "qui": 797,
      "_de": 798,
      "ha": 799,
      "path.": 800,
      "record": 801,
      "init_": 802,
      "\\x0": 803,
      "header": 804,
      "default": 805,
      "y.": 806,
      "<SEP><SEP>def<SEP>": 807,
      "=None": 808,
      "pri": 809,
      "ax": 810,
      "jang": 811,
      "json": 812,
      "it<SEP>": 813,
      "fin": 814,
      "er(": 815,
      "et": 816,
      "move": 817,
      "msg": 818,
      "tic": 819,
      "ET": 820,
      "vol": 821,
      "in_": 822,
      "lin": 823,
      "ste": 824,
      "sen": 825,
      "abel": 826,
      "auth": 827,
      "[1": 828,
      "Par": 829,
      "trans": 830,
      "']\n": 831,
      "form": 832,
      "work": 833,
      "raise<SEP>": 834,
      "are<SEP>": 835,
      "base": 836,
      "12": 837,
      "context": 838,
      "off": 839,
      "rea": 840,
      "sup": 841,
      "arch": 842,
      "1)\n": 843,
      "s<SEP>import<SEP>": 844,
      "try:\n": 845,
      "s/": 846,
      "t\n": 847,
      "ge(": 848,
      "print<SEP>": 849,
      "en<SEP>": 850,
      "view": 851,
      "reg": 852,
      "rap": 853,
      "lib": 854,
      "ci": 855,
      "pat": 856,
      "<SEP>=<SEP>\"": 857,
      "<SEP><SEP><SEP><SEP><SEP><SEP><SEP><SEP>\"\"\"": 858,
      "module": 859,
      "################": 860,
      "\\x4": 861,
      "util": 862,
      "direc": 863,
      "go": 864,
      "node": 865,
      "tern": 866,
      "dist": 867,
      "'),\n": 868,
      "TI": 869,
      "number": 870,
      "<SEP>C": 871,
      "32": 872,
      "djang": 873,
      "ori": 874,
      "):<SEP>": 875,
      "attr": 876,
      "TER": 877,
      "c_": 878,
      "0)\n": 879,
      "war": 880,
      "None:\n": 881,
      "[]\n": 882,
      "tting": 883,
      "True\n": 884,
      "gh": 885,
      "Lo": 886,
      "comm": 887,
      "tra": 888,
      "except<SEP>": 889,
      "image": 890,
      "ue<SEP>": 891,
      "by<SEP>": 892,
      "<SEP><SEP><SEP><SEP><SEP><SEP><SEP><SEP>for<SEP>": 893,
      "lete": 894,
      "ly<SEP>": 895,
      "in(": 896,
      "proper": 897,
      "us": 898,
      "host": 899,
      "sta": 900,
      "api": 901,
      "<SEP><SEP><SEP><SEP><SEP><SEP><SEP><SEP><SEP><SEP><SEP><SEP>#<SEP>": 902,
      "__init_": 903,
      "wid": 904,
      "__init__": 905,
      "E_": 906,
      "d,<SEP>": 907,
      "ing_": 908,
      "ment(": 909,
      "db.": 910,
      "gth": 911,
      "wil": 912,
      "tag": 913,
      "ts": 914,
      "d<SEP>=<SEP>": 915,
      "re.": 916,
      "This<SEP>": 917,
      "200": 918,
      "os.path.": 919,
      "ata": 920,
      "quer": 921,
      "logg": 922,
      "Type": 923,
      "hand": 924,
      "ameter": 925,
      "add_": 926,
      "obj": 927,
      "cu": 928,
      "str(": 929,
      "AP": 930,
      "Value": 931,
      "tive": 932,
      "UR": 933,
      "ch<SEP>": 934,
      "cont": 935,
      "{}": 936,
      "Me": 937,
      "ww": 938,
      "function": 939,
      "open": 940,
      "filter": 941,
      "im": 942,
      "outpu": 943,
      "es": 944,
      "label": 945,
      "of<SEP>the<SEP>": 946,
      "info": 947,
      "filename": 948,
      "ir": 949,
      "<SEP><SEP><SEP><SEP><SEP><SEP><SEP><SEP>self._": 950,
      "<SEP>'": 951,
      "y\n": 952,
      "exec": 953,
      "t()\n": 954,
      "<SEP><SEP><SEP><SEP><SEP><SEP><SEP><SEP>self.assertEqual(": 955,
      "ref": 956,
      "()": 957,
      ".get(": 958,
      "ou<SEP>": 959,
      "connec": 960,
      "umn": 961,
      "<SEP><SEP>#<SEP>": 962,
      "django.": 963,
      "]<SEP>": 964,
      "<SEP><SEP><SEP><SEP>},\n": 965,
      "Bu": 966,
      "False\n": 967,
      "OP": 968,
      "``": 969,
      "\":<SEP>[\n": 970,
      "<SEP><SEP><SEP><SEP>{\n": 971,
      "uid": 972,
      "25": 973,
      "guest": 974,
      "equal(": 975,
      "selec": 976,
      "DE": 977,
      "roo": 978,
      "int(": 979,
      "].": 980,
      "reso": 981,
      "T_": 982,
      "ing.": 983,
      "-><SEP>": 984,
      "tle": 985,
      "cle": 986,
      "ation<SEP>": 987,
      "gra": 988,
      "order": 989,
      "block": 990,
      "valid": 991,
      "am<SEP>": 992,
      "<SEP><SEP><SEP><SEP>\n": 993,
      "hel": 994,
      "l_": 995,
      "AC": 996,
      "date\":<SEP>\"": 997,
      "length": 998,
      "For": 999,
      "<SEP><SEP><SEP><SEP><SEP><SEP>],\n": 1000,
      "quire": 1001,
      "videos\":<SEP>[\n": 1002,
      "<SEP><SEP><SEP><SEP><SEP><SEP>\"guest": 1003,
      "<SEP><SEP><SEP><SEP><SEP><SEP>\"date\":<SEP>\"": 1004,
      "<SEP><SEP><SEP><SEP><SEP><SEP>\"videos\":<SEP>[\n": 1005,
      "change": 1006,
      "<SEP><SEP><SEP><SEP><SEP><SEP>\"guest\":<SEP>\"": 1007,
      "main": 1008,
      "other": 1009,
      "Ele": 1010,
      ">>": 1011,
      "mail": 1012,
      "yte": 1013,
      "ume": 1014,
      "<SEP><SEP><SEP><SEP><SEP><SEP><SEP><SEP>assert<SEP>": 1015,
      "tar": 1016,
      "scription": 1017,
      "setting": 1018,
      "will<SEP>": 1019,
      "\t\t\t\t": 1020,
      "')": 1021,
      "id<SEP>": 1022,
      "param<SEP>": 1023,
      "if": 1024,
      "print(": 1025,
      "spa": 1026,
      "uld<SEP>": 1027,
      "client.": 1028,
      "uni": 1029,
      "tain": 1030,
      "produc": 1031,
      "En": 1032,
      "!=<SEP>": 1033,
      "curren": 1034,
      "\\x22": 1035,
      "rame": 1036,
      "<SEP>S": 1037,
      "Ad": 1038,
      "buil": 1039,
      "<SEP><SEP><SEP><SEP><SEP><SEP><SEP><SEP>else:\n": 1040,
      "title": 1041,
      "s<SEP>to<SEP>": 1042,
      "If<SEP>": 1043,
      "ru": 1044,
      "ted<SEP>": 1045,
      "3,<SEP>": 1046,
      "<SEP><SEP><SEP><SEP><SEP>#<SEP><SEP>": 1047,
      "y-": 1048,
      "typ": 1049,
      "source": 1050,
      "<SEP><SEP><SEP><SEP><SEP><SEP><SEP><SEP>assert_": 1051,
      "parse": 1052,
      "ph": 1053,
      "ce_": 1054,
      "':\n": 1055,
      "vo": 1056,
      "_f": 1057,
      "<SEP>W": 1058,
      "Sub": 1059,
      "<SEP>=<SEP>np.": 1060,
      "Ke": 1061,
      "rent": 1062,
      "\\x65": 1063,
      "match": 1064,
      "expec": 1065,
      "fir": 1066,
      "ble": 1067,
      "range(": 1068,
      "UT": 1069,
      "<SEP><SEP><SEP><SEP><SEP><SEP><SEP><SEP>:": 1070,
      "bug": 1071,
      "plo": 1072,
      "sk": 1073,
      "cal": 1074,
      "the-": 1075,
      "License": 1076,
      "defaul": 1077,
      "ape": 1078,
      "models.": 1079,
      "<SEP><SEP><SEP><SEP><SEP><SEP><SEP><SEP><SEP><SEP>": 1080,
      "64": 1081,
      "for<SEP>i": 1082,
      "seri": 1083,
      "())\n": 1084,
      "ele": 1085,
      "one<SEP>": 1086,
      "tent": 1087,
      "<SEP>+=<SEP>": 1088,
      "turn": 1089,
      "=False": 1090,
      "ler": 1091,
      "pass": 1092,
      "RO": 1093,
      "<SEP>or<SEP>": 1094,
      "cr": 1095,
      "s['": 1096,
      "df": 1097,
      "Str": 1098,
      "gener": 1099,
      "_key": 1100,
      "lob": 1101,
      "Po": 1102,
      "spli": 1103,
      "bin": 1104,
      "sum": 1105,
      "vari": 1106,
      "volume": 1107,
      "clo": 1108,
      "act": 1109,
      "resource": 1110,
      "proces": 1111,
      "ME": 1112,
      "ful": 1113,
      ".format": 1114,
      "tx": 1115,
      "template": 1116,
      "ight": 1117,
      "mb": 1118,
      "clu": 1119,
      "Op": 1120,
      "map": 1121,
      "<SEP>=<SEP>None\n": 1122,
      "List": 1123,
      "ifi": 1124,
      "_value": 1125,
      "er_": 1126,
      "ong": 1127,
      "ree": 1128,
      "<SEP><SEP><SEP><SEP><SEP><SEP><SEP><SEP>#": 1129,
      "IG": 1130,
      "html": 1131,
      "property": 1132,
      "inter": 1133,
      "',": 1134,
      "%<SEP>(": 1135,
      "Un": 1136,
      "require": 1137,
      "p_": 1138,
      "s<SEP>the<SEP>": 1139,
      "point": 1140,
      "mission": 1141,
      "<SEP><SEP><SEP><SEP>self.": 1142,
      "Return": 1143,
      "name,<SEP>": 1144,
      "Ar": 1145,
      "ribute": 1146,
      "[i": 1147,
      "server": 1148,
      "pub": 1149,
      "rando": 1150,
      "column": 1151,
      "char": 1152,
      "\\x69": 1153,
      "assert_": 1154,
      "func": 1155,
      "limi": 1156,
      "dict": 1157,
      "_file": 1158,
      ")<SEP>==<SEP>": 1159,
      "av": 1160,
      "\"<SEP>%<SEP>": 1161,
      "search": 1162,
      "join(": 1163,
      "are": 1164,
      "er<SEP>": 1165,
      "loa": 1166,
      "raw": 1167,
      "acces": 1168,
      "\\x6f": 1169,
      "IC": 1170,
      "_P": 1171,
      "all_": 1172,
      "win": 1173,
      "16": 1174,
      "Bo": 1175,
      "-2": 1176,
      "hi": 1177,
      "<SEP>-<SEP>": 1178,
      ",<SEP><SEP><SEP><SEP><SEP>#<SEP><SEP>": 1179,
      "LO": 1180,
      "''": 1181,
      "can<SEP>": 1182,
      "type<SEP>": 1183,
      "o<SEP>": 1184,
      "alize": 1185,
      "thon": 1186,
      "set<SEP>": 1187,
      ".get_": 1188,
      "lace": 1189,
      "job": 1190,
      "vel": 1191,
      "_type": 1192,
      "contain": 1193,
      "cor": 1194,
      "ING": 1195,
      "<SEP>=<SEP>0\n": 1196,
      "ITH": 1197,
      "stru": 1198,
      "value<SEP>": 1199,
      "<SEP>LE": 1200,
      "all<SEP>": 1201,
      "\\x74": 1202,
      "{\"": 1203,
      "ip_": 1204,
      "LAT": 1205,
      "save": 1206,
      "projec": 1207,
      "sr": 1208,
      "seq": 1209,
      "es<SEP>": 1210,
      "mark": 1211,
      "resul": 1212,
      "ding": 1213,
      "ly": 1214,
      "<SEP><SEP><SEP><SEP>\"\"\"": 1215,
      "Field": 1216,
      "':": 1217,
      "flo": 1218,
      "d<SEP>to<SEP>": 1219,
      "mock": 1220,
      "space": 1221,
      "IS": 1222,
      "})\n": 1223,
      "d<SEP>in<SEP>": 1224,
      "cm": 1225,
      "dtype": 1226,
      "load": 1227,
      "ft": 1228,
      "<SEP><SEP><SEP><SEP><SEP><SEP><SEP>": 1229,
      ",<SEP>self.": 1230,
      "CH": 1231,
      "Key": 1232,
      "A<SEP>": 1233,
      "w.": 1234,
      "session": 1235,
      "t(self": 1236,
      "out<SEP>": 1237,
      "product_": 1238,
      "iter": 1239,
      "array(": 1240,
      "we<SEP>": 1241,
      "exist": 1242,
      "bar": 1243,
      "ed_": 1244,
      "<SEP><SEP><SEP><SEP><SEP><SEP><SEP><SEP><SEP><SEP><SEP><SEP>\"": 1245,
      "<SEP><SEP><SEP><SEP><SEP><SEP><SEP><SEP>\n": 1246,
      "intro": 1247,
      "location": 1248,
      "copy": 1249,
      "actor": 1250,
      "File": 1251,
      "'])\n": 1252,
      "0<SEP>": 1253,
      "HT": 1254,
      "<SEP><SEP><SEP><SEP><SEP><SEP><SEP><SEP><SEP><SEP><SEP><SEP><SEP><SEP><SEP><SEP>if<SEP>": 1255,
      "LATIN": 1256,
      "**kwarg": 1257,
      ">>><SEP>": 1258,
      "Di": 1259,
      "Element(": 1260,
      "TTER": 1261,
      "mul": 1262,
      "<SEP>LETTER": 1263,
      "the\n": 1264,
      "request.": 1265,
      "tion<SEP>": 1266,
      "og": 1267,
      "OF": 1268,
      "env": 1269,
      "ET.": 1270,
      "Ma": 1271,
      "s<SEP>in<SEP>": 1272,
      "unit": 1273,
      "ment<SEP>": 1274,
      "100": 1275,
      "_path": 1276,
      "assert<SEP>": 1277,
      "now": 1278,
      "can": 1279,
      "exten": 1280,
      "User": 1281,
      "attri": 1282,
      "tity": 1283,
      "director": 1284,
      "ime": 1285,
      "email": 1286,
      "================": 1287,
      "ken": 1288,
      ")<SEP>+<SEP>": 1289,
      "_s": 1290,
      "An": 1291,
      "s()\n": 1292,
      "que": 1293,
      "2)\n": 1294,
      "test.": 1295,
      "stor": 1296,
      "datetime": 1297,
      "<SEP>of<SEP>the<SEP>": 1298,
      "To": 1299,
      "s.append(": 1300,
      "le<SEP>": 1301,
      "count": 1302,
      "zer": 1303,
      "disp": 1304,
      "addres": 1305,
      "intro---": 1306,
      "_re": 1307,
      "mem": 1308,
      "tool": 1309,
      "content": 1310,
      "should<SEP>": 1311,
      "-8": 1312,
      "Gener": 1313,
      "flow": 1314,
      "s:<SEP>": 1315,
      "PO": 1316,
      "mon": 1317,
      "float": 1318,
      "\\x73": 1319,
      "objects.": 1320,
      "-s-": 1321,
      "']<SEP>=<SEP>": 1322,
      "fiel": 1323,
      "():\n": 1324,
      "i.": 1325,
      "t.\n": 1326,
      "/intro---": 1327,
      "Data": 1328,
      "af": 1329,
      "inpu": 1330,
      "-off": 1331,
      "sys.": 1332,
      "nel": 1333,
      "s\",\n": 1334,
      "ug": 1335,
      "._": 1336,
      "feren": 1337,
      "D_": 1338,
      "nu": 1339,
      "-*": 1340,
      "ke<SEP>": 1341,
      "\\x61": 1342,
      "start": 1343,
      ".p": 1344,
      "NU": 1345,
      "variable": 1346,
      "ted_": 1347,
      "na": 1348,
      "org": 1349,
      "tail": 1350,
      "String": 1351,
      "use<SEP>": 1352,
      "parameter": 1353,
      "\\x20\\x20\\x20\\x20": 1354,
      "Fo": 1355,
      "foo": 1356,
      "ent": 1357,
      ";<SEP>": 1358,
      "net": 1359,
      "attribute": 1360,
      "\"\"\"<SEP>": 1361,
      "<SEP>is<SEP>not<SEP>": 1362,
      "Int": 1363,
      "for<SEP>i<SEP>in<SEP>": 1364,
      "********": 1365,
      "\\x0a": 1366,
      "<SEP>LETTER<SEP>": 1367,
      "Time": 1368,
      "_list": 1369,
      "y,<SEP>": 1370,
      "you<SEP>": 1371,
      "under": 1372,
      "sign-off": 1373,
      "cap": 1374,
      "create_": 1375,
      "atch": 1376,
      "(<SEP>": 1377,
      "def": 1378,
      "0:\n": 1379,
      "width": 1380,
      "1<SEP>": 1381,
      "max_": 1382,
      "<SEP><SEP><SEP><SEP><SEP><SEP><SEP><SEP><SEP><SEP><SEP><SEP><SEP><SEP><SEP><SEP>'": 1383,
      "output": 1384,
      "ION": 1385,
      "<SEP><SEP><SEP><SEP><SEP><SEP><SEP><SEP><SEP><SEP><SEP>": 1386,
      "__init__(self,<SEP>": 1387,
      "on_": 1388,
      "delete": 1389,
      "ss": 1390,
      "isinstance": 1391,
      "dict(": 1392,
      "lang": 1393,
      "ext": 1394,
      "argu": 1395,
      "whi": 1396,
      "Si": 1397,
      "Excep": 1398,
      "dow": 1399,
      "SubElement(": 1400,
      "ES": 1401,
      "s<SEP>for<SEP>": 1402,
      "<SEP><SEP><SEP><SEP><SEP><SEP><SEP><SEP>if<SEP>not<SEP>": 1403,
      "from_": 1404,
      "debug": 1405,
      "<SEP><SEP><SEP><SEP><SEP><SEP><SEP><SEP><SEP><SEP><SEP><SEP><SEP><SEP><SEP><SEP>self.": 1406,
      "/sign-off": 1407,
      "mu": 1408,
      "ET.SubElement(": 1409,
      "c<SEP>": 1410,
      "provide": 1411,
      "\\x72": 1412,
      "AB": 1413,
      "Au": 1414,
      "\\x00": 1415,
      "whe": 1416,
      "<SEP><SEP><SEP><SEP>for<SEP>": 1417,
      "peri": 1418,
      "shape": 1419,
      "3.": 1420,
      "s<SEP>and<SEP>": 1421,
      "fields.": 1422,
      "close": 1423,
      "dn": 1424,
      "s<SEP>are<SEP>": 1425,
      "ning": 1426,
      "task": 1427,
      ":<SEP>0x00": 1428,
      "'<SEP>%<SEP>": 1429,
      "<SEP><SEP><SEP><SEP>0x00": 1430,
      "Ser": 1431,
      "python": 1432,
      "<SEP>a<SEP>": 1433,
      "err": 1434,
      "igh": 1435,
      "\\x43": 1436,
      "desc": 1437,
      "description": 1438,
      "execute": 1439,
      "isinstance(": 1440,
      "<SEP><SEP><SEP><SEP><SEP><SEP><SEP><SEP><SEP>": 1441,
      "d)\n": 1442,
      ".format(": 1443,
      "token": 1444,
      "re_": 1445,
      "4,<SEP>": 1446,
      "Var": 1447,
      "\\x6e": 1448,
      "_info": 1449,
      "have<SEP>": 1450,
      "link": 1451,
      "gr": 1452,
      "DO": 1453,
      "2\n": 1454,
      "modi": 1455,
      "utf": 1456,
      "ge<SEP>": 1457,
      "'s<SEP>": 1458,
      "y<SEP>=<SEP>": 1459,
      "\\x64": 1460,
      "cf": 1461,
      "/sign-off---": 1462,
      "cke": 1463,
      "fol": 1464,
      "sche": 1465,
      "prefix": 1466,
      "pass\n": 1467,
      "quen": 1468,
      "ght<SEP>": 1469,
      "d-": 1470,
      "t_id": 1471,
      "clude": 1472,
      "our": 1473,
      "<SEP><SEP><SEP><SEP><SEP><SEP><SEP><SEP>elif<SEP>": 1474,
      "<SEP>==<SEP>'": 1475,
      "TH": 1476,
      "fn": 1477,
      "las": 1478,
      "over": 1479,
      "Ra": 1480,
      "glob": 1481,
      "sition": 1482,
      "Out": 1483,
      "<<SEP>": 1484,
      "user_": 1485,
      "file<SEP>": 1486,
      "a.": 1487,
      "cha": 1488,
      "my": 1489,
      "out.": 1490,
      "=True)\n": 1491,
      "ie": 1492,
      "ATE": 1493,
      "<SEP><SEP><SEP><SEP>def<SEP>_": 1494,
      "pop": 1495,
      "tial": 1496,
      "'<SEP>in<SEP>": 1497,
      "dep": 1498,
      "raise": 1499,
      "().": 1500,
      "specifi": 1501,
      "contex": 1502,
      "ate_": 1503,
      "forma": 1504,
      "pack": 1505,
      "-\n": 1506,
      "15": 1507,
      "AG": 1508,
      "gen": 1509,
      "'):\n": 1510,
      "20": 1511,
      "service": 1512,
      "x,<SEP>": 1513,
      "ep": 1514,
      "[:": 1515,
      "parser": 1516,
      "_index": 1517,
      "gri": 1518,
      "exception": 1519,
      "down": 1520,
      "IL": 1521,
      "chil": 1522,
      "<SEP><SEP><SEP><SEP><SEP><SEP><SEP><SEP>assert_equal(": 1523,
      "'t<SEP>": 1524,
      "S_": 1525,
      "dr": 1526,
      "page": 1527,
      "scal": 1528,
      "red": 1529,
      "Com": 1530,
      "{}\n": 1531,
      "[0]\n": 1532,
      "method": 1533,
      "\\x70": 1534,
      "split(": 1535,
      "password": 1536,
      "ample": 1537,
      "s,\n": 1538,
      "\\x5": 1539,
      "ter<SEP>": 1540,
      "ea": 1541,
      "s(self):\n": 1542,
      "ty<SEP>": 1543,
      "frame": 1544,
      "<SEP><SEP><SEP><SEP><SEP><SEP><SEP><SEP>)\n": 1545,
      "ice": 1546,
      "s<SEP>a<SEP>": 1547,
      "s<SEP>=<SEP>[]\n": 1548,
      "\")": 1549,
      "b.": 1550,
      "bl": 1551,
      "orm": 1552,
      "<SEP><SEP><SEP><SEP><SEP><SEP>\"date\":<SEP>\"201": 1553,
      "ream": 1554,
      "ate<SEP>": 1555,
      "start_": 1556,
      ".get('": 1557,
      "args,<SEP>": 1558,
      "show": 1559,
      "Check": 1560,
      "t-": 1561,
      "file.": 1562,
      "data<SEP>": 1563,
      "ing<SEP>the<SEP>": 1564,
      "nex": 1565,
      "_url": 1566,
      "doc": 1567,
      "(r": 1568,
      "remo": 1569,
      "auto": 1570,
      "ALL": 1571,
      "\\x63": 1572,
      "sq": 1573,
      "hash": 1574,
      "multi": 1575,
      "2<SEP>=<SEP>": 1576,
      "NA": 1577,
      "ind": 1578,
      "username": 1579,
      "Pub": 1580,
      "coding": 1581,
      "Al": 1582,
      "print_": 1583,
      "=None):\n": 1584,
      "\\x20\\x43": 1585,
      "<SEP>AN": 1586,
      "x_": 1587,
      "'))\n": 1588,
      "pos": 1589,
      "lag": 1590,
      "level": 1591,
      "new_": 1592,
      "sco": 1593,
      "a-": 1594,
      "Set": 1595,
      "Pa": 1596,
      "from": 1597,
      "command": 1598,
      "ye": 1599,
      "<SEP>as<SEP>": 1600,
      "\"<SEP>+<SEP>": 1601,
      "utils.": 1602,
      "11": 1603,
      "post": 1604,
      "ive": 1605,
      "self.has_": 1606,
      "ated<SEP>": 1607,
      "ware": 1608,
      "cache": 1609,
      "gg": 1610,
      "tifi": 1611,
      "<SEP><SEP><SEP><SEP><SEP><SEP><SEP><SEP>return<SEP>self.": 1612,
      "'),<SEP>": 1613,
      "ateg": 1614,
      "local": 1615,
      "transaction": 1616,
      "distribute": 1617,
      "%s<SEP>": 1618,
      "/<SEP>": 1619,
      "ron": 1620,
      "\"]": 1621,
      "Get": 1622,
      "FOR": 1623,
      "byte": 1624,
      "pk": 1625,
      "\\x3a": 1626,
      "diff": 1627,
      "ail": 1628,
      "met": 1629,
      "input": 1630,
      "DI": 1631,
      "Py": 1632,
      "Exception": 1633,
      "5,<SEP>": 1634,
      "eng": 1635,
      "NO": 1636,
      "_C": 1637,
      "no<SEP>": 1638,
      "mode": 1639,
      "ValueError": 1640,
      "will<SEP>be<SEP>": 1641,
      "[1,<SEP>": 1642,
      "quest": 1643,
      "stem": 1644,
      "cre": 1645,
      "ing\n": 1646,
      "t<SEP>is<SEP>": 1647,
      "tot": 1648,
      "\\x8": 1649,
      "edi": 1650,
      "permission": 1651,
      "oper": 1652,
      "Do": 1653,
      "MP": 1654,
      "orig": 1655,
      "admin": 1656,
      "utf-8": 1657,
      "(1": 1658,
      "TO": 1659,
      "_data": 1660,
      "Ver": 1661,
      "<SEP><SEP><SEP><SEP><SEP><SEP><SEP><SEP>try:\n": 1662,
      "ree<SEP>": 1663,
      "site": 1664,
      "load_": 1665,
      "sn": 1666,
      "d.\n": 1667,
      "t)\n": 1668,
      "cell": 1669,
      "99": 1670,
      "Not": 1671,
      "FI": 1672,
      "l.": 1673,
      "t<SEP>the<SEP>": 1674,
      "VarInt": 1675,
      "top": 1676,
      "<SEP><SEP><SEP><SEP><SEP><SEP><SEP><SEP><SEP><SEP><SEP><SEP><SEP><SEP><SEP><SEP><SEP><SEP><SEP><SEP><SEP>": 1677,
      "URL": 1678,
      "Dic": 1679,
      "rou": 1680,
      "make": 1681,
      "so<SEP>": 1682,
      "name='": 1683,
      "D<SEP>": 1684,
      "bi": 1685,
      "ign": 1686,
      "stock": 1687,
      "<SEP><SEP><SEP><SEP>#": 1688,
      "remove": 1689,
      "add(": 1690,
      "License<SEP>": 1691,
      "www.": 1692,
      "AS": 1693,
      "00000000": 1694,
      "key<SEP>": 1695,
      "buf": 1696,
      "tmp": 1697,
      "conten": 1698,
      "Config": 1699,
      "</": 1700,
      "sol": 1701,
      "\\x3d": 1702,
      "/the-": 1703,
      "pool": 1704,
      "()<SEP>": 1705,
      "=self.": 1706,
      "t_type": 1707,
      "\"),\n": 1708,
      "r.": 1709,
      "<SEP><SEP><SEP><SEP>def<SEP>__init__(self,<SEP>": 1710,
      "tk": 1711,
      "ense": 1712,
      "[],<SEP>": 1713,
      "t<SEP>to<SEP>": 1714,
      "right<SEP>": 1715,
      "<SEP>if<SEP>": 1716,
      "\\xb": 1717,
      "le_": 1718,
      "check_": 1719,
      "<SEP><SEP><SEP><SEP><SEP><SEP><SEP><SEP>:param<SEP>": 1720,
      "nc": 1721,
      "om": 1722,
      "s():\n": 1723,
      "<SEP><SEP><SEP><SEP><SEP><SEP><SEP><SEP><SEP><SEP><SEP><SEP>raise<SEP>": 1724,
      "ory": 1725,
      "fail": 1726,
      "age<SEP>": 1727,
      "replace": 1728,
      "Arg": 1729,
      "))": 1730,
      "TY": 1731,
      "Vi": 1732,
      "ans": 1733,
      "logging.": 1734,
      "<SEP>=<SEP>True\n": 1735,
      "s<SEP>=<SEP>[": 1736,
      "referen": 1737,
      "contin": 1738,
      "<SEP>WITH": 1739,
      "ght": 1740,
      "<SEP><SEP><SEP><SEP><SEP><SEP><SEP><SEP>if<SEP>self.": 1741,
      "under<SEP>the<SEP>": 1742,
      "Ac": 1743,
      "IP": 1744,
      "<SEP>=<SEP>self._": 1745,
      "ity": 1746,
      "lic<SEP>": 1747,
      "pick": 1748,
      "s':<SEP>": 1749,
      "layer": 1750,
      "<SEP>=<SEP>ET.SubElement(": 1751,
      "u'": 1752,
      "clear": 1753,
      "sample": 1754,
      "fl": 1755,
      "ard": 1756,
      "ister": 1757,
      "cation": 1758,
      "else<SEP>": 1759,
      "'],\n": 1760,
      "stamp": 1761,
      "g.": 1762,
      "not<SEP>in<SEP>": 1763,
      "<SEP><SEP><SEP><SEP><SEP><SEP><SEP><SEP><SEP><SEP><SEP><SEP><SEP><SEP><SEP><SEP><SEP><SEP><SEP><SEP><SEP><SEP><SEP><SEP><SEP><SEP>": 1764,
      "UL": 1765,
      "<SEP><SEP><SEP><SEP><SEP><SEP><SEP><SEP><SEP><SEP><SEP><SEP><SEP><SEP><SEP><SEP><SEP><SEP><SEP>": 1766,
      "face": 1767,
      "ution": 1768,
      "<SEP><SEP><SEP><SEP><SEP><SEP><SEP><SEP><SEP><SEP><SEP><SEP><SEP><SEP><SEP><SEP>#<SEP>": 1769,
      "read_": 1770,
      "s://": 1771,
      "ue\n": 1772,
      "poin": 1773,
      "on-": 1774,
      "\\x6c": 1775,
      "ther<SEP>": 1776,
      "\":\n": 1777,
      "2<SEP>": 1778,
      "34": 1779,
      "\\x34\\x2e": 1780,
      "\\x36\\x36": 1781,
      "status_": 1782,
      "super(": 1783,
      "sv": 1784,
      "name__": 1785,
      "pattern": 1786,
      "has<SEP>": 1787,
      "################################": 1788,
      "handler": 1789,
      "django.db.": 1790,
      "Col": 1791,
      "dition": 1792,
      "setup": 1793,
      "\\xf": 1794,
      "\\x30\\x2e": 1795,
      "rule": 1796,
      "__name__": 1797,
      "')<SEP>": 1798,
      "Up": 1799,
      "ffer": 1800,
      "compile": 1801,
      "given": 1802,
      "<SEP><SEP><SEP><SEP><SEP><SEP>\"date\":<SEP>\"200": 1803,
      "\\xc": 1804,
      "stop": 1805,
      "docu": 1806,
      "emp": 1807,
      "<SEP><SEP><SEP><SEP><SEP><SEP><SEP><SEP><SEP><SEP><SEP><SEP><SEP><SEP><SEP><SEP><SEP>": 1808,
      "but<SEP>": 1809,
      "lamb": 1810,
      "Create": 1811,
      "#<SEP><SEP><SEP><SEP>": 1812,
      "_M": 1813,
      "args.": 1814,
      "Id": 1815,
      "class": 1816,
      "cho": 1817,
      "patch": 1818,
      "'}": 1819,
      "detail": 1820,
      "<SEP><SEP><SEP><SEP><SEP><SEP><SEP><SEP><SEP><SEP><SEP><SEP><SEP><SEP><SEP>": 1821,
      "end_": 1822,
      "<SEP><SEP><SEP><SEP>def<SEP>__": 1823,
      "response.": 1824,
      "(),<SEP>": 1825,
      "UN": 1826,
      "output_": 1827,
      "out.put": 1828,
      "dy": 1829,
      "imp": 1830,
      "a_": 1831,
      "e.": 1832,
      "\\x9": 1833,
      "coder": 1834,
      "verbo": 1835,
      "tton": 1836,
      ",<SEP><SEP><SEP><SEP><SEP>#<SEP><SEP>LATIN": 1837,
      "18": 1838,
      "Equal": 1839,
      "impor": 1840,
      "enable": 1841,
      "verse": 1842,
      "None,<SEP>": 1843,
      "cr,<SEP>": 1844,
      "_S": 1845,
      "ort": 1846,
      "'],<SEP>": 1847,
      "channel": 1848,
      "uid,<SEP>": 1849,
      "ment_": 1850,
      "our<SEP>": 1851,
      "\\x39\\x2e": 1852,
      "<SEP><SEP><SEP><SEP><SEP><SEP><SEP><SEP>with<SEP>": 1853,
      "secon": 1854,
      "\\x33\\x2e": 1855,
      ".com": 1856,
      "ast": 1857,
      "only<SEP>": 1858,
      "<SEP><SEP><SEP><SEP><SEP><SEP><SEP><SEP><SEP><SEP><SEP><SEP>for<SEP>": 1859,
      "\\x33\\x33": 1860,
      "update_": 1861,
      "0,": 1862,
      "EC": 1863,
      "dri": 1864,
      "<SEP><SEP><SEP><SEP>:": 1865,
      "roll": 1866,
      "=None,<SEP>": 1867,
      "django.db.models.": 1868,
      "<SEP><SEP><SEP><SEP><SEP><SEP><SEP><SEP><SEP><SEP><SEP><SEP><SEP><SEP>": 1869,
      "line<SEP>": 1870,
      "https://": 1871,
      "...": 1872,
      "Base": 1873,
      "Ob": 1874,
      "Model": 1875,
      "Parameter": 1876,
      ".append(": 1877,
      "<SEP>it<SEP>": 1878,
      "list<SEP>of<SEP>": 1879,
      ")))\n": 1880,
      "ary<SEP>": 1881,
      "day": 1882,
      "raph": 1883,
      "include": 1884,
      "default_": 1885,
      "([": 1886,
      "sent": 1887,
      "help": 1888,
      "56": 1889,
      "<SEP><SEP><SEP><SEP><SEP><SEP><SEP><SEP>b": 1890,
      "any<SEP>": 1891,
      "new<SEP>": 1892,
      "x<SEP>": 1893,
      "ded": 1894,
      "suppor": 1895,
      "''\n": 1896,
      "tch": 1897,
      "bool": 1898,
      "14": 1899,
      "s<SEP>(": 1900,
      "tocol": 1901,
      "mer": 1902,
      "ze<SEP>": 1903,
      "dis": 1904,
      "color": 1905,
      "position": 1906,
      "befo": 1907,
      "'<SEP>+<SEP>": 1908,
      "VarInt32": 1909,
      "le.": 1910,
      "\\x3d\\x22": 1911,
      "\\xe": 1912,
      "sible": 1913,
      "pp": 1914,
      "<SEP><SEP><SEP><SEP><SEP><SEP>out.put": 1915,
      "parent": 1916,
      "[0].": 1917,
      "method\n": 1918,
      "_to_": 1919,
      "device": 1920,
      "lib.": 1921,
      "Cop": 1922,
      "ni": 1923,
      "wrap": 1924,
      "','": 1925,
      "\",": 1926,
      "adata": 1927,
      "(c": 1928,
      "<SEP><SEP><SEP><SEP><SEP><SEP><SEP><SEP>except<SEP>": 1929,
      "de_": 1930,
      "from<SEP>django.": 1931,
      "continue\n": 1932,
      ">\n": 1933,
      "django.db.models.fields.": 1934,
      "('django.db.models.fields.": 1935,
      "<SEP><SEP><SEP><SEP>else:\n": 1936,
      "<SEP><SEP><SEP><SEP>def<SEP>get_": 1937,
      "Resp": 1938,
      "AD": 1939,
      "\"<SEP>%<SEP>(": 1940,
      "strip": 1941,
      "<SEP><SEP><SEP><SEP><SEP><SEP><SEP><SEP><SEP><SEP><SEP><SEP>else:\n": 1942,
      "\\x2f": 1943,
      "len(self.": 1944,
      "kwargs.": 1945,
      "settings.": 1946,
      "expected": 1947,
      "dest": 1948,
      "stream": 1949,
      "moun": 1950,
      "<SEP>=<SEP>[]\n": 1951,
      "General<SEP>": 1952,
      "lection": 1953,
      "sec": 1954,
      "some": 1955,
      "compute": 1956,
      "\\xa": 1957,
      "when<SEP>": 1958,
      "window": 1959,
      "Copy": 1960,
      ";\n": 1961,
      "<SEP><SEP><SEP><SEP><SEP><SEP><SEP><SEP>r": 1962,
      "<SEP><SEP><SEP><SEP><SEP><SEP>if<SEP>": 1963,
      "<SEP><SEP><SEP><SEP><SEP><SEP><SEP><SEP><SEP><SEP><SEP><SEP><SEP><SEP><SEP><SEP><SEP><SEP>": 1964,
      "ank": 1965,
      "Option": 1966,
      "s<SEP>of<SEP>": 1967,
      "ip_ac": 1968,
      "Action": 1969,
      "n_": 1970,
      "<SEP>=<SEP>False\n": 1971,
      "resh": 1972,
      "Man": 1973,
      "langu": 1974,
      "<SEP>!=<SEP>": 1975,
      "TR": 1976,
      "applic": 1977,
      "get('": 1978,
      "cess": 1979,
      "while": 1980,
      "GNU": 1981,
      "tup": 1982,
      "stat": 1983,
      "\\x35\\x2e": 1984,
      "\\x20\\x39\\x2e": 1985,
      "cr,<SEP>uid,<SEP>": 1986,
      "][": 1987,
      "entity": 1988,
      "d<SEP>by<SEP>": 1989,
      "return\n": 1990,
      "time_": 1991,
      "\\x32\\x2e": 1992,
      "remote": 1993,
      "`<SEP>": 1994,
      "t:\n": 1995,
      "xml": 1996,
      "LI": 1997,
      "<SEP><SEP><SEP><SEP><SEP><SEP><SEP><SEP>\"\"\"<SEP>": 1998,
      "Size": 1999
    },
    "merges": [
      "S E",
      "SE P",
      "< SEP",
      "<SEP >",
      "<SEP> <SEP>",
      "<SEP><SEP> <SEP><SEP>",
      "<SEP><SEP><SEP><SEP> <SEP><SEP><SEP><SEP>",
      "s e",
      ", <SEP>",
      "r e",
      "\\ x",
      "i n",
      "o n",
      "t e",
      "o r",
      ") \n",
      "d e",
      "= <SEP>",
      "s t",
      "- -",
      "t h",
      "<SEP> =<SEP>",
      "e r",
      "se l",
      "\\x 3",
      "sel f",
      "a l",
      "m e",
      "l e",
      "t i",
      "<SEP><SEP><SEP><SEP><SEP><SEP><SEP><SEP> <SEP><SEP><SEP><SEP><SEP><SEP><SEP><SEP>",
      ": \n",
      "t <SEP>",
      "f <SEP>",
      "a n",
      "s <SEP>",
      "a r",
      "self .",
      "c o",
      "e <SEP>",
      "<SEP><SEP><SEP><SEP><SEP><SEP><SEP><SEP> <SEP><SEP><SEP><SEP>",
      ", \n",
      "e n",
      "r o",
      "a t",
      ": <SEP>",
      "t _",
      "u r",
      "a s",
      "-- --",
      "g e",
      "ti on",
      "\" \"",
      "f i",
      "d <SEP>",
      ") :\n",
      "c e",
      "m p",
      "a me",
      "l i",
      "s .",
      "# <SEP>",
      "u e",
      "l o",
      "in g",
      "c h",
      "a te",
      "se r",
      "t o",
      "e c",
      "d i",
      "r i",
      "f or",
      "s i",
      "t .",
      "u n",
      "n ame",
      "th e<SEP>",
      "i f<SEP>",
      "\\x 2",
      "t (",
      "e l",
      "de f<SEP>",
      "a c",
      "v i",
      "c on",
      "# #",
      "i d",
      "ur n",
      "a p",
      "0 0",
      "e x",
      "re t",
      "n o",
      "in <SEP>",
      "te r",
      "\" \n",
      "d _",
      "m o",
      "ret urn",
      "t y",
      "re s",
      "t t",
      "u l",
      "' ,<SEP>",
      "---- ----",
      "<SEP> i",
      "m a",
      "a d",
      "<SEP><SEP><SEP><SEP><SEP><SEP><SEP><SEP> self.",
      "t r",
      "co m",
      "<SEP><SEP><SEP><SEP> <SEP><SEP>",
      "( self",
      "a b",
      "k e",
      "\t \t",
      "m <SEP>",
      "o s",
      "return <SEP>",
      "th e",
      "p a",
      "co l",
      "v al",
      "p e",
      "b er",
      "y <SEP>",
      "s _",
      "<SEP><SEP><SEP><SEP> def<SEP>",
      "u t",
      "( '",
      "mp or",
      "re p",
      "r a",
      "v er",
      "u p",
      "p ro",
      "o p",
      "vi de",
      "on e",
      "\" ,\n",
      "= =",
      "tt p",
      "\\x2 0",
      "fi le",
      "mpor t<SEP>",
      "for <SEP>",
      ") <SEP>",
      "i l",
      "q u",
      "a <SEP>",
      "/ /",
      "h ttp",
      "' :<SEP>",
      "o l",
      "_ _",
      "c .",
      "( )\n",
      "] \n",
      ": //",
      "f ro",
      "\\x 6",
      ") )\n",
      "te st",
      "to <SEP>",
      "vide os",
      "c l",
      "n t",
      "st r",
      "d o",
      "[ '",
      ". \n",
      "<SEP><SEP><SEP><SEP><SEP><SEP><SEP><SEP> \"",
      "a tion",
      "d at",
      "s <SEP>=<SEP>",
      "http ://",
      "as ser",
      "p ar",
      "s h",
      "com /",
      "u m",
      "\\x3 1",
      "\"\" \"\n",
      "rep or",
      "t. c",
      "ber t",
      "\" :<SEP>",
      "col bert",
      "s (",
      "## ##",
      "s \n",
      "N one",
      "v e",
      "al l",
      "u b",
      "repor t.c",
      "<SEP><SEP><SEP><SEP><SEP><SEP><SEP><SEP>\" http://",
      "the colbert",
      "c. com/",
      "videos /",
      "report.c c.com/",
      "<SEP><SEP><SEP><SEP><SEP><SEP><SEP><SEP>\"http:// thecolbert",
      "report.cc.com/ videos/",
      "<SEP><SEP><SEP><SEP><SEP><SEP><SEP><SEP>\"http://thecolbert report.cc.com/videos/",
      "fro m<SEP>",
      "b u",
      "o b",
      "de r",
      "\\ \n",
      "ing <SEP>",
      "l a",
      "si on",
      "T r",
      "i s<SEP>",
      "s p",
      "' ]",
      "o f<SEP>",
      "c k",
      "ar g",
      "t a",
      "dat a",
      "( \"",
      "no t<SEP>",
      "' )\n",
      "w i",
      "ke y",
      "ab le",
      "p er",
      "<SEP><SEP><SEP><SEP><SEP><SEP><SEP><SEP><SEP><SEP><SEP><SEP><SEP><SEP><SEP><SEP> <SEP><SEP><SEP><SEP>",
      "<SEP> in<SEP>",
      "ti me",
      "n e",
      "d ate",
      "pa th",
      "in e",
      "ty pe",
      "val ue",
      "Tr ue",
      "se <SEP>",
      "f a",
      "ge t_",
      "p o",
      "',<SEP> '",
      "m i",
      "d (",
      ") ,\n",
      "= =<SEP>",
      "R e",
      "an d<SEP>",
      "* *",
      "r or",
      "i mport<SEP>",
      "j ec",
      "' \n",
      "te x",
      "re c",
      "p .",
      "y _",
      "s a",
      "s c",
      "s ,<SEP>",
      "\\x3 3",
      "+ <SEP>",
      "(self ,<SEP>",
      "u ser",
      "s o",
      "-------- --------",
      "\" ,<SEP>",
      "\\x3 9",
      "m at",
      "\\x3 5",
      "<SEP><SEP><SEP><SEP><SEP><SEP><SEP><SEP> #<SEP>",
      "\\x3 4",
      "\\x3 2",
      "d u",
      "(self ):\n",
      "ue st",
      "wi th",
      "<SEP><SEP><SEP><SEP><SEP><SEP><SEP><SEP> if<SEP>",
      "b o",
      "li st",
      "cl as",
      "<SEP><SEP> <SEP>",
      "\" <SEP>",
      "\\x3 0",
      "' ,\n",
      "h e",
      "f f",
      ") ,<SEP>",
      "\\x3 6",
      "\" )\n",
      "f o",
      "\\x3 8",
      "de l",
      "\\x 7",
      "i c",
      "ap p",
      "\\x2 e",
      "<SEP><SEP><SEP><SEP><SEP><SEP><SEP><SEP><SEP><SEP><SEP><SEP><SEP><SEP><SEP><SEP> <SEP><SEP><SEP><SEP><SEP><SEP><SEP><SEP><SEP><SEP><SEP><SEP><SEP><SEP><SEP><SEP>",
      "an d",
      "-- -",
      "<SEP><SEP><SEP><SEP><SEP><SEP><SEP><SEP> return<SEP>",
      "\\x3 7",
      "ac k",
      "( self.",
      "test _",
      "p r",
      "o u",
      "<SEP>=<SEP> self.",
      "p y",
      "or <SEP>",
      "le n",
      "<SEP>i s<SEP>",
      "a se",
      "z e",
      "lo g",
      ") .",
      "me n",
      "re <SEP>",
      "[ 0",
      "or d",
      "I n",
      "ul t",
      "== ==",
      "in t",
      "al se",
      "a m",
      "I N",
      "o ut",
      "c tion",
      "_ name",
      "re n",
      "a s<SEP>",
      "' <SEP>",
      "qu al",
      "i t",
      "te m",
      "i g",
      "F alse",
      "n p.",
      "ce p",
      "= '",
      "fi g",
      "- 1",
      "t or",
      "re q",
      "T E",
      "T h",
      "me nt",
      "el d",
      "ce s",
      "an g",
      "i p",
      "_ in",
      "<SEP><SEP><SEP><SEP><SEP><SEP> \"",
      "l ine",
      "0 1",
      "i s",
      "ge t",
      "h o",
      "co de",
      "0 .",
      "<SEP> the<SEP>",
      "_ id",
      "_ c",
      "asser t",
      "ob jec",
      "mo del",
      "\":<SEP> \"",
      "0 x",
      "<SEP><SEP><SEP><SEP> if<SEP>",
      "r ror",
      "tex t",
      "ur l",
      "pr in",
      "li c",
      "se t",
      "a u",
      "r an",
      "#### ####",
      "co mp",
      "<SEP>i mport<SEP>",
      "1 ,<SEP>",
      "<SEP> (",
      "E rror",
      "> <SEP>",
      "h as",
      "p u",
      "in i",
      "d .",
      "s =",
      "v en",
      "0 ,<SEP>",
      "':<SEP> '",
      "re ate",
      "] )\n",
      "a t<SEP>",
      "{ \n",
      "clas s<SEP>",
      "i st",
      "\"\" \"",
      "- <SEP>",
      "req uest",
      "O N",
      "_ p",
      "b e",
      "<SEP><SEP><SEP><SEP><SEP><SEP><SEP><SEP><SEP><SEP><SEP><SEP><SEP><SEP><SEP><SEP> <SEP><SEP><SEP><SEP><SEP><SEP><SEP><SEP>",
      "f e",
      "] ,<SEP>",
      "ch e",
      "qual (",
      "ge t(",
      "an ce",
      "te n",
      "el se",
      "} \n",
      "% s",
      "d b",
      "s ub",
      "a g",
      "ec k",
      "al <SEP>",
      "an <SEP>",
      "n um",
      "s :\n",
      "de x",
      "L E",
      "s )\n",
      "\\x20 \\x20",
      "st ar",
      "<SEP> of<SEP>",
      "<SEP><SEP><SEP><SEP><SEP><SEP><SEP><SEP> \"\"\"\n",
      "at u",
      "c t",
      "else :\n",
      "ri p",
      "con fig",
      "<SEP><SEP><SEP><SEP><SEP><SEP><SEP><SEP><SEP><SEP><SEP><SEP> self.",
      "h t",
      "I T",
      "fi eld",
      "c ur",
      "with <SEP>",
      "<SEP><SEP><SEP><SEP> #<SEP>",
      "b e<SEP>",
      "T e",
      "s y",
      "( \n",
      "m _",
      "co un",
      "de fa",
      "lo c",
      "S e",
      "ne w",
      "R E",
      "<SEP><SEP><SEP><SEP><SEP><SEP><SEP><SEP><SEP><SEP><SEP><SEP> '",
      "<SEP>=<SEP> '",
      "0 \n",
      "<SEP> ==<SEP>",
      "li en",
      ". <SEP>",
      "A T",
      "s [",
      "O R",
      "<SEP><SEP><SEP><SEP><SEP><SEP><SEP><SEP>self. assert",
      ",<SEP> '",
      "ver sion",
      "p ut",
      "ro up",
      "w a",
      "di r",
      "C o",
      "i le",
      "ex cep",
      "lo w",
      "in st",
      "al i",
      "th er",
      "C on",
      "f un",
      "res p",
      "i tem",
      "l <SEP>",
      "x .",
      "p re",
      "app en",
      "on se",
      "<SEP><SEP><SEP><SEP><SEP><SEP><SEP><SEP> '",
      "ad d",
      "} ,\n",
      "t ri",
      "w or",
      "s sa",
      "<SEP><SEP><SEP><SEP><SEP><SEP><SEP><SEP> asser",
      "\\ n",
      "for mat",
      "S T",
      "self. _",
      "th o",
      "e d",
      "] ,\n",
      "ex p",
      "<SEP><SEP><SEP><SEP>def<SEP> test_",
      "{ '",
      "ur ce",
      "<SEP><SEP><SEP><SEP><SEP><SEP><SEP><SEP><SEP><SEP><SEP><SEP> if<SEP>",
      "v e<SEP>",
      "A L",
      "res ult",
      "l ate",
      "th is<SEP>",
      "00 00",
      "s -",
      "ch eck",
      "\\x20 \\x31",
      "w h",
      "s or",
      "ra i",
      "e w",
      "<SEP><SEP><SEP><SEP> <SEP>",
      "1 .",
      "m in",
      "st <SEP>",
      "er .",
      "g i",
      "tr y",
      "si g",
      "p as",
      "<SEP> +<SEP>",
      "c e<SEP>",
      "sh o",
      "tr an",
      "lo ck",
      "ac tion",
      "st _",
      "u re",
      "% <SEP>",
      "mp le",
      "k w",
      "te d",
      "g roup",
      "A R",
      ",<SEP> \"",
      "0x 00",
      "se t_",
      "w ri",
      "s sion",
      "[0 ]",
      "<SEP> to<SEP>",
      "o s.",
      "s on",
      "a ge",
      "<SEP><SEP><SEP><SEP> return<SEP>",
      "a der",
      "ssa ge",
      "E R",
      "en er",
      "b ack",
      "c reate",
      "A N",
      "2 .",
      "up date",
      "th at<SEP>",
      "len (",
      "objec t",
      "ar ra",
      "u te",
      "v ar",
      "en d",
      "= \"",
      "N o",
      "w e",
      "te mp",
      ". .",
      "du le",
      "+ =<SEP>",
      "u se",
      "I D",
      "Th e<SEP>",
      "me tho",
      "y (",
      "resp onse",
      "ma x",
      "\t\t \t",
      "E x",
      "si ze",
      "sc rip",
      "er ror",
      "# \n",
      "[ \n",
      "c a",
      "==== ====",
      "m an",
      "<SEP><SEP><SEP><SEP> @",
      "m s",
      "# <SEP><SEP>",
      "on <SEP>",
      "<SEP><SEP><SEP><SEP><SEP><SEP><SEP><SEP><SEP><SEP><SEP><SEP><SEP><SEP><SEP><SEP> <SEP><SEP><SEP><SEP><SEP><SEP><SEP><SEP><SEP><SEP><SEP><SEP>",
      "o .",
      "- 0",
      "m .",
      "con n",
      "2 ,<SEP>",
      "re ad",
      "l l",
      "st o",
      "_ b",
      "w n",
      "c lien",
      "st atu",
      "P ro",
      "p l",
      "---------------- ----------------",
      "s. \n",
      "str ing",
      "ch an",
      "D e",
      "i s_",
      "ma ge",
      "kw arg",
      "to _",
      "o k",
      "al _",
      "<SEP><SEP><SEP><SEP> '",
      "s u",
      "d \n",
      "w ord",
      "\",<SEP> \"",
      "has _",
      "fi x",
      "m ar",
      "None \n",
      "at or",
      "[ \"",
      "appen d(",
      "p i",
      "= True",
      "S t",
      "e li",
      "C h",
      "bu te",
      "par am",
      "E qual(",
      "ro w",
      "<SEP> for<SEP>",
      "d a",
      "e d<SEP>",
      "t ,<SEP>",
      "in dex",
      "la y",
      "sig n",
      "sp ec",
      "o f",
      "* <SEP>",
      "op tion",
      "t able",
      "] <SEP>=<SEP>",
      "wri te",
      "<SEP><SEP><SEP><SEP> \"\"\"\n",
      "S <SEP>",
      "s ):\n",
      "j o",
      "L ic",
      "Lic en",
      "2 01",
      "ti l",
      "1 0",
      "t <SEP>=<SEP>",
      "eli f<SEP>",
      "Te st",
      "inst ance",
      "c all",
      "me ssage",
      "<SEP><SEP><SEP><SEP><SEP><SEP><SEP><SEP><SEP><SEP><SEP><SEP> return<SEP>",
      "** **",
      "pro du",
      "di c",
      "1 \n",
      "m l",
      "<SEP> and<SEP>",
      "e ven",
      "f .",
      "N ame",
      "fi l",
      "M o",
      "st ate",
      "de n",
      "V al",
      "as k",
      "p or",
      "vi ce",
      "y pe",
      "F i",
      "r un",
      "E N",
      "un d",
      "qu i",
      "_ de",
      "h a",
      "path .",
      "rec ord",
      "ini t_",
      "\\x 0",
      "he ader",
      "defa ult",
      "y .",
      "<SEP><SEP> def<SEP>",
      "= None",
      "p ri",
      "a x",
      "j ang",
      "j son",
      "i t<SEP>",
      "f in",
      "er (",
      "e t",
      "mo ve",
      "ms g",
      "ti c",
      "E T",
      "v ol",
      "in _",
      "l in",
      "s te",
      "se n",
      "ab el",
      "au th",
      "[ 1",
      "P ar",
      "tran s",
      "' ]\n",
      "for m",
      "wor k",
      "rai se<SEP>",
      "a re<SEP>",
      "b ase",
      "1 2",
      "con text",
      "o ff",
      "re a",
      "s up",
      "ar ch",
      "1 )\n",
      "s<SEP> import<SEP>",
      "try :\n",
      "s /",
      "t \n",
      "ge (",
      "prin t<SEP>",
      "en <SEP>",
      "vi ew",
      "re g",
      "r ap",
      "li b",
      "c i",
      "p at",
      "<SEP>=<SEP> \"",
      "<SEP><SEP><SEP><SEP><SEP><SEP><SEP><SEP> \"\"\"",
      "mo dule",
      "######## ########",
      "\\x 4",
      "u til",
      "di rec",
      "g o",
      "no de",
      "ter n",
      "di st",
      "' ),\n",
      "T I",
      "num ber",
      "<SEP> C",
      "3 2",
      "d jang",
      "or i",
      ") :<SEP>",
      "at tr",
      "TE R",
      "c _",
      "0 )\n",
      "w ar",
      "None :\n",
      "[ ]\n",
      "tt ing",
      "True \n",
      "g h",
      "L o",
      "com m",
      "tr a",
      "excep t<SEP>",
      "i mage",
      "u e<SEP>",
      "b y<SEP>",
      "<SEP><SEP><SEP><SEP><SEP><SEP><SEP><SEP> for<SEP>",
      "le te",
      "l y<SEP>",
      "in (",
      "pro per",
      "u s",
      "ho st",
      "st a",
      "ap i",
      "<SEP><SEP><SEP><SEP><SEP><SEP><SEP><SEP><SEP><SEP><SEP><SEP> #<SEP>",
      "__ init_",
      "w id",
      "__init_ _",
      "E _",
      "d ,<SEP>",
      "ing _",
      "men t(",
      "db .",
      "g th",
      "w il",
      "ta g",
      "t s",
      "d <SEP>=<SEP>",
      "re .",
      "Th is<SEP>",
      "2 00",
      "os. path.",
      "at a",
      "qu er",
      "log g",
      "T ype",
      "h and",
      "ame ter",
      "ad d_",
      "ob j",
      "c u",
      "str (",
      "A P",
      "Val ue",
      "ti ve",
      "U R",
      "ch <SEP>",
      "con t",
      "{ }",
      "M e",
      "w w",
      "fun ction",
      "op en",
      "fil ter",
      "i m",
      "out pu",
      "e s",
      "l abel",
      "of<SEP> the<SEP>",
      "in fo",
      "file name",
      "i r",
      "<SEP><SEP><SEP><SEP><SEP><SEP><SEP><SEP>self. _",
      "<SEP> '",
      "y \n",
      "ex ec",
      "t( )\n",
      "<SEP><SEP><SEP><SEP><SEP><SEP><SEP><SEP>self.assert Equal(",
      "re f",
      "( )",
      ". get(",
      "ou <SEP>",
      "conn ec",
      "um n",
      "<SEP><SEP> #<SEP>",
      "djang o.",
      "] <SEP>",
      "<SEP><SEP><SEP><SEP> },\n",
      "B u",
      "False \n",
      "O P",
      "` `",
      "\":<SEP> [\n",
      "<SEP><SEP><SEP><SEP> {\n",
      "u id",
      "2 5",
      "g uest",
      "e qual(",
      "sel ec",
      "D E",
      "ro o",
      "in t(",
      "] .",
      "res o",
      "T _",
      "ing .",
      "- ><SEP>",
      "t le",
      "c le",
      "ation <SEP>",
      "g ra",
      "or der",
      "b lock",
      "val id",
      "a m<SEP>",
      "<SEP><SEP><SEP><SEP> \n",
      "h el",
      "l _",
      "A C",
      "date \":<SEP>\"",
      "len gth",
      "F or",
      "<SEP><SEP><SEP><SEP><SEP><SEP> ],\n",
      "qui re",
      "videos \":<SEP>[\n",
      "<SEP><SEP><SEP><SEP><SEP><SEP>\" guest",
      "<SEP><SEP><SEP><SEP><SEP><SEP>\" date\":<SEP>\"",
      "<SEP><SEP><SEP><SEP><SEP><SEP>\" videos\":<SEP>[\n",
      "chan ge",
      "<SEP><SEP><SEP><SEP><SEP><SEP>\"guest \":<SEP>\"",
      "ma in",
      "o ther",
      "E le",
      "> >",
      "ma il",
      "y te",
      "u me",
      "<SEP><SEP><SEP><SEP><SEP><SEP><SEP><SEP>asser t<SEP>",
      "t ar",
      "scrip tion",
      "se tting",
      "wil l<SEP>",
      "\t\t \t\t",
      "' )",
      "i d<SEP>",
      "par am<SEP>",
      "i f",
      "prin t(",
      "s pa",
      "ul d<SEP>",
      "clien t.",
      "un i",
      "ta in",
      "produ c",
      "E n",
      "! =<SEP>",
      "cur ren",
      "\\x2 2",
      "r ame",
      "<SEP> S",
      "A d",
      "bu il",
      "<SEP><SEP><SEP><SEP><SEP><SEP><SEP><SEP> else:\n",
      "ti tle",
      "s<SEP> to<SEP>",
      "I f<SEP>",
      "r u",
      "te d<SEP>",
      "3 ,<SEP>",
      "<SEP><SEP><SEP><SEP><SEP> #<SEP><SEP>",
      "y -",
      "ty p",
      "so urce",
      "<SEP><SEP><SEP><SEP><SEP><SEP><SEP><SEP>asser t_",
      "par se",
      "p h",
      "ce _",
      "' :\n",
      "v o",
      "_ f",
      "<SEP> W",
      "S ub",
      "<SEP>=<SEP> np.",
      "K e",
      "re nt",
      "\\x6 5",
      "mat ch",
      "exp ec",
      "fi r",
      "b le",
      "ran ge(",
      "U T",
      "<SEP><SEP><SEP><SEP><SEP><SEP><SEP><SEP> :",
      "bu g",
      "p lo",
      "s k",
      "c al",
      "the -",
      "Licen se",
      "defa ul",
      "ap e",
      "model s.",
      "<SEP><SEP><SEP><SEP><SEP><SEP><SEP><SEP> <SEP><SEP>",
      "6 4",
      "for <SEP>i",
      "ser i",
      "( ))\n",
      "e le",
      "on e<SEP>",
      "te nt",
      "<SEP> +=<SEP>",
      "t urn",
      "= False",
      "l er",
      "pas s",
      "R O",
      "<SEP> or<SEP>",
      "c r",
      "s ['",
      "d f",
      "S tr",
      "g ener",
      "_ key",
      "lo b",
      "P o",
      "sp li",
      "b in",
      "s um",
      "var i",
      "vol ume",
      "c lo",
      "ac t",
      "reso urce",
      "pro ces",
      "M E",
      "f ul",
      ". format",
      "t x",
      "temp late",
      "ig ht",
      "m b",
      "cl u",
      "O p",
      "m ap",
      "<SEP>=<SEP> None\n",
      "L ist",
      "i fi",
      "_ value",
      "er _",
      "on g",
      "re e",
      "<SEP><SEP><SEP><SEP><SEP><SEP><SEP><SEP> #",
      "I G",
      "ht ml",
      "proper ty",
      "in ter",
      "' ,",
      "% <SEP>(",
      "U n",
      "re quire",
      "p _",
      "s<SEP> the<SEP>",
      "po int",
      "mi ssion",
      "<SEP><SEP><SEP><SEP> self.",
      "Re turn",
      "name ,<SEP>",
      "A r",
      "ri bute",
      "[ i",
      "ser ver",
      "p ub",
      "ran do",
      "col umn",
      "ch ar",
      "\\x6 9",
      "asser t_",
      "fun c",
      "li mi",
      "di ct",
      "_ file",
      ")<SEP> ==<SEP>",
      "a v",
      "\"<SEP> %<SEP>",
      "se arch",
      "jo in(",
      "a re",
      "er <SEP>",
      "lo a",
      "ra w",
      "ac ces",
      "\\x6 f",
      "I C",
      "_ P",
      "all _",
      "w in",
      "1 6",
      "B o",
      "- 2",
      "h i",
      "<SEP> -<SEP>",
      ", <SEP><SEP><SEP><SEP><SEP>#<SEP><SEP>",
      "L O",
      "' '",
      "c an<SEP>",
      "typ e<SEP>",
      "o <SEP>",
      "ali ze",
      "th on",
      "se t<SEP>",
      ". get_",
      "la ce",
      "j ob",
      "v el",
      "_ type",
      "con tain",
      "c or",
      "IN G",
      "<SEP>=<SEP> 0\n",
      "IT H",
      "str u",
      "val ue<SEP>",
      "<SEP> LE",
      "all <SEP>",
      "\\x7 4",
      "{ \"",
      "ip _",
      "L AT",
      "sa ve",
      "pro jec",
      "s r",
      "se q",
      "e s<SEP>",
      "mar k",
      "res ul",
      "d ing",
      "l y",
      "<SEP><SEP><SEP><SEP> \"\"\"",
      "Fi eld",
      "' :",
      "f lo",
      "d<SEP> to<SEP>",
      "mo ck",
      "spa ce",
      "I S",
      "} )\n",
      "d<SEP> in<SEP>",
      "c m",
      "d type",
      "lo ad",
      "f t",
      "<SEP><SEP><SEP><SEP><SEP><SEP> <SEP>",
      ",<SEP> self.",
      "C H",
      "Ke y",
      "A <SEP>",
      "w .",
      "se ssion",
      "t( self",
      "ou t<SEP>",
      "produc t_",
      "i ter",
      "arra y(",
      "w e<SEP>",
      "ex ist",
      "b ar",
      "e d_",
      "<SEP><SEP><SEP><SEP><SEP><SEP><SEP><SEP><SEP><SEP><SEP><SEP> \"",
      "<SEP><SEP><SEP><SEP><SEP><SEP><SEP><SEP> \n",
      "int ro",
      "loc ation",
      "co py",
      "ac tor",
      "F ile",
      "'] )\n",
      "0 <SEP>",
      "H T",
      "<SEP><SEP><SEP><SEP><SEP><SEP><SEP><SEP><SEP><SEP><SEP><SEP><SEP><SEP><SEP><SEP> if<SEP>",
      "LAT IN",
      "** kwarg",
      ">> ><SEP>",
      "D i",
      "Ele ment(",
      "T TER",
      "m ul",
      "<SEP>LE TTER",
      "the \n",
      "request .",
      "tion <SEP>",
      "o g",
      "O F",
      "en v",
      "ET .",
      "M a",
      "s<SEP> in<SEP>",
      "un it",
      "men t<SEP>",
      "1 00",
      "_ path",
      "asser t<SEP>",
      "no w",
      "c an",
      "ex ten",
      "U ser",
      "at tri",
      "ti ty",
      "direc tor",
      "i me",
      "e mail",
      "======== ========",
      "k en",
      ")<SEP> +<SEP>",
      "_ s",
      "A n",
      "s ()\n",
      "q ue",
      "2 )\n",
      "test .",
      "st or",
      "date time",
      "<SEP>of<SEP> the<SEP>",
      "T o",
      "s. append(",
      "le <SEP>",
      "coun t",
      "z er",
      "di sp",
      "add res",
      "intro ---",
      "_ re",
      "me m",
      "to ol",
      "con tent",
      "sho uld<SEP>",
      "- 8",
      "G ener",
      "f low",
      "s :<SEP>",
      "P O",
      "m on",
      "flo at",
      "\\x7 3",
      "object s.",
      "- s-",
      "'] <SEP>=<SEP>",
      "fi el",
      "( ):\n",
      "i .",
      "t. \n",
      "/ intro---",
      "D ata",
      "a f",
      "in pu",
      "- off",
      "sy s.",
      "n el",
      "s \",\n",
      "u g",
      ". _",
      "fe ren",
      "D _",
      "n u",
      "- *",
      "k e<SEP>",
      "\\x6 1",
      "star t",
      ". p",
      "N U",
      "vari able",
      "te d_",
      "n a",
      "or g",
      "ta il",
      "Str ing",
      "u se<SEP>",
      "par ameter",
      "\\x20\\x20 \\x20\\x20",
      "F o",
      "fo o",
      "en t",
      "; <SEP>",
      "ne t",
      "attri bute",
      "\"\" \"<SEP>",
      "<SEP>is<SEP> not<SEP>",
      "I nt",
      "for<SEP>i <SEP>in<SEP>",
      "**** ****",
      "\\x0 a",
      "<SEP>LETTER <SEP>",
      "T ime",
      "_ list",
      "y ,<SEP>",
      "y ou<SEP>",
      "un der",
      "sign -off",
      "c ap",
      "create _",
      "at ch",
      "( <SEP>",
      "de f",
      "0 :\n",
      "wid th",
      "1 <SEP>",
      "max _",
      "<SEP><SEP><SEP><SEP><SEP><SEP><SEP><SEP><SEP><SEP><SEP><SEP><SEP><SEP><SEP><SEP> '",
      "out put",
      "I ON",
      "<SEP><SEP><SEP><SEP><SEP><SEP><SEP><SEP> <SEP><SEP><SEP>",
      "__init__ (self,<SEP>",
      "on _",
      "de lete",
      "s s",
      "is instance",
      "dic t(",
      "l ang",
      "ex t",
      "arg u",
      "wh i",
      "S i",
      "Ex cep",
      "do w",
      "Sub Element(",
      "E S",
      "s<SEP> for<SEP>",
      "<SEP><SEP><SEP><SEP><SEP><SEP><SEP><SEP>if<SEP> not<SEP>",
      "fro m_",
      "de bug",
      "<SEP><SEP><SEP><SEP><SEP><SEP><SEP><SEP><SEP><SEP><SEP><SEP><SEP><SEP><SEP><SEP> self.",
      "/ sign-off",
      "m u",
      "ET. SubElement(",
      "c <SEP>",
      "pro vide",
      "\\x7 2",
      "A B",
      "A u",
      "\\x 00",
      "w he",
      "<SEP><SEP><SEP><SEP> for<SEP>",
      "per i",
      "sh ape",
      "3 .",
      "s<SEP> and<SEP>",
      "field s.",
      "clo se",
      "d n",
      "s<SEP> are<SEP>",
      "n ing",
      "t ask",
      ":<SEP> 0x00",
      "'<SEP> %<SEP>",
      "<SEP><SEP><SEP><SEP> 0x00",
      "S er",
      "py thon",
      "<SEP> a<SEP>",
      "er r",
      "ig h",
      "\\x4 3",
      "de sc",
      "de scription",
      "exec ute",
      "isinstance (",
      "<SEP><SEP><SEP><SEP><SEP><SEP><SEP><SEP> <SEP>",
      "d )\n",
      ".format (",
      "to ken",
      "re _",
      "4 ,<SEP>",
      "V ar",
      "\\x6 e",
      "_in fo",
      "ha ve<SEP>",
      "lin k",
      "g r",
      "D O",
      "2 \n",
      "mo di",
      "ut f",
      "g e<SEP>",
      "' s<SEP>",
      "y <SEP>=<SEP>",
      "\\x6 4",
      "c f",
      "/sign-off ---",
      "c ke",
      "f ol",
      "s che",
      "pre fix",
      "pas s\n",
      "qu en",
      "gh t<SEP>",
      "d -",
      "t_ id",
      "clu de",
      "o ur",
      "<SEP><SEP><SEP><SEP><SEP><SEP><SEP><SEP> elif<SEP>",
      "<SEP>==<SEP> '",
      "T H",
      "f n",
      "l as",
      "o ver",
      "R a",
      "g lob",
      "si tion",
      "O ut",
      "< <SEP>",
      "user _",
      "file <SEP>",
      "a .",
      "ch a",
      "m y",
      "ou t.",
      "=True )\n",
      "i e",
      "A TE",
      "<SEP><SEP><SEP><SEP>def<SEP> _",
      "p op",
      "ti al",
      "' <SEP>in<SEP>",
      "de p",
      "rai se",
      "( ).",
      "spec ifi",
      "con tex",
      "ate _",
      "for ma",
      "p ack",
      "- \n",
      "1 5",
      "A G",
      "g en",
      "' ):\n",
      "2 0",
      "ser vice",
      "x ,<SEP>",
      "e p",
      "[ :",
      "par ser",
      "_in dex",
      "g ri",
      "excep tion",
      "do wn",
      "I L",
      "ch il",
      "<SEP><SEP><SEP><SEP><SEP><SEP><SEP><SEP>assert_ equal(",
      "' t<SEP>",
      "S _",
      "d r",
      "pa ge",
      "sc al",
      "re d",
      "Co m",
      "{ }\n",
      "[0 ]\n",
      "metho d",
      "\\x7 0",
      "spli t(",
      "pass word",
      "a mple",
      "s ,\n",
      "\\x 5",
      "ter <SEP>",
      "e a",
      "s (self):\n",
      "ty <SEP>",
      "f rame",
      "<SEP><SEP><SEP><SEP><SEP><SEP><SEP><SEP> )\n",
      "i ce",
      "s<SEP> a<SEP>",
      "s<SEP>=<SEP> []\n",
      "\" )",
      "b .",
      "b l",
      "or m",
      "<SEP><SEP><SEP><SEP><SEP><SEP>\"date\":<SEP>\" 201",
      "re am",
      "ate <SEP>",
      "star t_",
      ".get( '",
      "arg s,<SEP>",
      "sho w",
      "Ch eck",
      "t -",
      "file .",
      "dat a<SEP>",
      "ing<SEP> the<SEP>",
      "n ex",
      "_ url",
      "do c",
      "( r",
      "re mo",
      "au to",
      "AL L",
      "\\x6 3",
      "s q",
      "has h",
      "mul ti",
      "2 <SEP>=<SEP>",
      "N A",
      "in d",
      "user name",
      "P ub",
      "co ding",
      "A l",
      "prin t_",
      "=None ):\n",
      "\\x20 \\x43",
      "<SEP> AN",
      "x _",
      "' ))\n",
      "p os",
      "la g",
      "le vel",
      "new _",
      "s co",
      "a -",
      "Se t",
      "P a",
      "fro m",
      "comm and",
      "y e",
      "<SEP> as<SEP>",
      "\"<SEP> +<SEP>",
      "util s.",
      "1 1",
      "po st",
      "i ve",
      "self. has_",
      "ate d<SEP>",
      "wa re",
      "ca che",
      "g g",
      "ti fi",
      "<SEP><SEP><SEP><SEP><SEP><SEP><SEP><SEP>return<SEP> self.",
      "' ),<SEP>",
      "ate g",
      "loc al",
      "trans action",
      "dist ribute",
      "% s<SEP>",
      "/ <SEP>",
      "r on",
      "\" ]",
      "G et",
      "F OR",
      "b yte",
      "p k",
      "\\x3 a",
      "di ff",
      "a il",
      "me t",
      "in put",
      "D I",
      "P y",
      "Excep tion",
      "5 ,<SEP>",
      "en g",
      "N O",
      "_ C",
      "no <SEP>",
      "mo de",
      "Value Error",
      "will<SEP> be<SEP>",
      "[ 1,<SEP>",
      "q uest",
      "s tem",
      "c re",
      "ing \n",
      "t<SEP> is<SEP>",
      "to t",
      "\\x 8",
      "e di",
      "per mission",
      "op er",
      "D o",
      "M P",
      "or ig",
      "ad min",
      "utf -8",
      "( 1",
      "T O",
      "_ data",
      "V er",
      "<SEP><SEP><SEP><SEP><SEP><SEP><SEP><SEP> try:\n",
      "re e<SEP>",
      "si te",
      "loa d_",
      "s n",
      "d .\n",
      "t )\n",
      "ce ll",
      "9 9",
      "No t",
      "F I",
      "l .",
      "t<SEP> the<SEP>",
      "Var Int",
      "to p",
      "<SEP><SEP><SEP><SEP><SEP><SEP><SEP><SEP><SEP><SEP><SEP><SEP><SEP><SEP><SEP><SEP><SEP><SEP><SEP><SEP> <SEP>",
      "UR L",
      "D ic",
      "ro u",
      "ma ke",
      "so <SEP>",
      "name ='",
      "D <SEP>",
      "b i",
      "ig n",
      "sto ck",
      "<SEP><SEP><SEP><SEP> #",
      "re move",
      "ad d(",
      "Licen se<SEP>",
      "ww w.",
      "A S",
      "0000 0000",
      "ke y<SEP>",
      "bu f",
      "t mp",
      "con ten",
      "Con fig",
      "< /",
      "s ol",
      "\\x3 d",
      "/ the-",
      "po ol",
      "( )<SEP>",
      "= self.",
      "t_ type",
      "\" ),\n",
      "r .",
      "<SEP><SEP><SEP><SEP>def<SEP> __init__(self,<SEP>",
      "t k",
      "en se",
      "[ ],<SEP>",
      "t<SEP> to<SEP>",
      "ri ght<SEP>",
      "<SEP> if<SEP>",
      "\\x b",
      "le _",
      "check _",
      "<SEP><SEP><SEP><SEP><SEP><SEP><SEP><SEP>: param<SEP>",
      "n c",
      "o m",
      "s( ):\n",
      "<SEP><SEP><SEP><SEP><SEP><SEP><SEP><SEP><SEP><SEP><SEP><SEP> raise<SEP>",
      "or y",
      "fa il",
      "ag e<SEP>",
      "rep lace",
      "Ar g",
      ") )",
      "T Y",
      "V i",
      "an s",
      "logg ing.",
      "<SEP>=<SEP> True\n",
      "s<SEP>=<SEP> [",
      "re feren",
      "cont in",
      "<SEP>W ITH",
      "g ht",
      "<SEP><SEP><SEP><SEP><SEP><SEP><SEP><SEP>if<SEP> self.",
      "under <SEP>the<SEP>",
      "A c",
      "I P",
      "<SEP>=<SEP>self. _",
      "i ty",
      "lic <SEP>",
      "pi ck",
      "s ':<SEP>",
      "lay er",
      "<SEP>=<SEP> ET.SubElement(",
      "u '",
      "cle ar",
      "sa mple",
      "f l",
      "ar d",
      "is ter",
      "c ation",
      "el se<SEP>",
      "'] ,\n",
      "sta mp",
      "g .",
      "not<SEP> in<SEP>",
      "<SEP><SEP><SEP><SEP><SEP><SEP><SEP><SEP><SEP><SEP><SEP><SEP><SEP><SEP><SEP><SEP><SEP><SEP><SEP><SEP><SEP><SEP><SEP><SEP> <SEP><SEP>",
      "U L",
      "<SEP><SEP><SEP><SEP><SEP><SEP><SEP><SEP><SEP><SEP><SEP><SEP><SEP><SEP><SEP><SEP> <SEP><SEP><SEP>",
      "fa ce",
      "u tion",
      "<SEP><SEP><SEP><SEP><SEP><SEP><SEP><SEP><SEP><SEP><SEP><SEP><SEP><SEP><SEP><SEP> #<SEP>",
      "rea d_",
      "s ://",
      "ue \n",
      "po in",
      "on -",
      "\\x6 c",
      "ther <SEP>",
      "\" :\n",
      "2 <SEP>",
      "3 4",
      "\\x34 \\x2e",
      "\\x36 \\x36",
      "statu s_",
      "sup er(",
      "s v",
      "name __",
      "pat tern",
      "h as<SEP>",
      "################ ################",
      "hand ler",
      "django. db.",
      "C ol",
      "di tion",
      "set up",
      "\\x f",
      "\\x30 \\x2e",
      "ru le",
      "__ name__",
      "' )<SEP>",
      "U p",
      "ff er",
      "comp ile",
      "gi ven",
      "<SEP><SEP><SEP><SEP><SEP><SEP>\"date\":<SEP>\" 200",
      "\\x c",
      "st op",
      "do cu",
      "e mp",
      "<SEP><SEP><SEP><SEP><SEP><SEP><SEP><SEP><SEP><SEP><SEP><SEP><SEP><SEP><SEP><SEP> <SEP>",
      "bu t<SEP>",
      "la mb",
      "C reate",
      "# <SEP><SEP><SEP><SEP>",
      "_ M",
      "arg s.",
      "I d",
      "clas s",
      "ch o",
      "pat ch",
      "' }",
      "de tail",
      "<SEP><SEP><SEP><SEP><SEP><SEP><SEP><SEP><SEP><SEP><SEP><SEP> <SEP><SEP><SEP>",
      "en d_",
      "<SEP><SEP><SEP><SEP>def<SEP> __",
      "response .",
      "( ),<SEP>",
      "U N",
      "outpu t_",
      "out. put",
      "d y",
      "i mp",
      "a _",
      "e .",
      "\\x 9",
      "co der",
      "ver bo",
      "tt on",
      ",<SEP><SEP><SEP><SEP><SEP>#<SEP><SEP> LATIN",
      "1 8",
      "E qual",
      "i mpor",
      "en able",
      "ver se",
      "None ,<SEP>",
      "cr ,<SEP>",
      "_ S",
      "or t",
      "'] ,<SEP>",
      "chan nel",
      "uid ,<SEP>",
      "men t_",
      "our <SEP>",
      "\\x39 \\x2e",
      "<SEP><SEP><SEP><SEP><SEP><SEP><SEP><SEP> with<SEP>",
      "se con",
      "\\x33 \\x2e",
      ". com",
      "a st",
      "on ly<SEP>",
      "<SEP><SEP><SEP><SEP><SEP><SEP><SEP><SEP><SEP><SEP><SEP><SEP> for<SEP>",
      "\\x33 \\x33",
      "update _",
      "0 ,",
      "E C",
      "d ri",
      "<SEP><SEP><SEP><SEP> :",
      "ro ll",
      "=None ,<SEP>",
      "django.db. models.",
      "<SEP><SEP><SEP><SEP><SEP><SEP><SEP><SEP><SEP><SEP><SEP><SEP> <SEP><SEP>",
      "lin e<SEP>",
      "http s://",
      ".. .",
      "B ase",
      "O b",
      "Mo del",
      "Par ameter",
      ". append(",
      "<SEP>i t<SEP>",
      "list <SEP>of<SEP>",
      ") ))\n",
      "ar y<SEP>",
      "da y",
      "rap h",
      "in clude",
      "defaul t_",
      "( [",
      "se nt",
      "hel p",
      "5 6",
      "<SEP><SEP><SEP><SEP><SEP><SEP><SEP><SEP> b",
      "an y<SEP>",
      "new <SEP>",
      "x <SEP>",
      "de d",
      "sup por",
      "' '\n",
      "t ch",
      "bo ol",
      "1 4",
      "s<SEP> (",
      "to col",
      "m er",
      "z e<SEP>",
      "di s",
      "col or",
      "po sition",
      "be fo",
      "'<SEP> +<SEP>",
      "VarInt 32",
      "le .",
      "\\x3d \\x22",
      "\\x e",
      "si ble",
      "p p",
      "<SEP><SEP><SEP><SEP><SEP><SEP> out.put",
      "pa rent",
      "[0] .",
      "metho d\n",
      "_ to_",
      "de vice",
      "lib .",
      "C op",
      "n i",
      "w rap",
      "', '",
      "\" ,",
      "ad ata",
      "( c",
      "<SEP><SEP><SEP><SEP><SEP><SEP><SEP><SEP> except<SEP>",
      "de _",
      "from<SEP> django.",
      "contin ue\n",
      "> \n",
      "django.db.models. fields.",
      "(' django.db.models.fields.",
      "<SEP><SEP><SEP><SEP> else:\n",
      "<SEP><SEP><SEP><SEP>def<SEP> get_",
      "Re sp",
      "A D",
      "\"<SEP> %<SEP>(",
      "st rip",
      "<SEP><SEP><SEP><SEP><SEP><SEP><SEP><SEP><SEP><SEP><SEP><SEP> else:\n",
      "\\x2 f",
      "len (self.",
      "kwarg s.",
      "setting s.",
      "expec ted",
      "de st",
      "st ream",
      "mo un",
      "<SEP>=<SEP> []\n",
      "Gener al<SEP>",
      "le ction",
      "se c",
      "so me",
      "comp ute",
      "\\x a",
      "wh en<SEP>",
      "win dow",
      "Cop y",
      "; \n",
      "<SEP><SEP><SEP><SEP><SEP><SEP><SEP><SEP> r",
      "<SEP><SEP><SEP><SEP><SEP><SEP> if<SEP>",
      "<SEP><SEP><SEP><SEP><SEP><SEP><SEP><SEP><SEP><SEP><SEP><SEP><SEP><SEP><SEP><SEP> <SEP><SEP>",
      "an k",
      "Op tion",
      "s<SEP> of<SEP>",
      "ip_ ac",
      "A ction",
      "n _",
      "<SEP>=<SEP> False\n",
      "res h",
      "M an",
      "lang u",
      "<SEP> !=<SEP>",
      "T R",
      "app lic",
      "get( '",
      "ces s",
      "wh ile",
      "G NU",
      "t up",
      "st at",
      "\\x35 \\x2e",
      "\\x20 \\x39\\x2e",
      "cr,<SEP> uid,<SEP>",
      "] [",
      "en tity",
      "d<SEP> by<SEP>",
      "return \n",
      "time _",
      "\\x32 \\x2e",
      "remo te",
      "` <SEP>",
      "t :\n",
      "x ml",
      "L I",
      "<SEP><SEP><SEP><SEP><SEP><SEP><SEP><SEP> \"\"\"<SEP>",
      "Si ze"
    ]
  }
}